{
  "version": "1.0",
  "truncation": null,
  "padding": null,
  "added_tokens": [],
  "normalizer": {
    "type": "Sequence",
    "normalizers": [
      {
        "type": "NFD"
      },
      {
        "type": "Lowercase"
      }
    ]
  },
  "pre_tokenizer": {
    "type": "Whitespace"
  },
  "post_processor": null,
  "decoder": null,
  "model": {
    "type": "WordPiece",
    "unk_token": "[UNK]",
    "continuing_subword_prefix": "##",
    "max_input_chars_per_word": 100,
    "vocab": {
      "!": 0,
      "\"": 1,
      "#": 2,
      "$": 3,
      "%": 4,
      "&": 5,
      "'": 6,
      "(": 7,
      ")": 8,
      "*": 9,
      "+": 10,
      ",": 11,
      "-": 12,
      ".": 13,
      "/": 14,
      "0": 15,
      "1": 16,
      "2": 17,
      "3": 18,
      "4": 19,
      "5": 20,
      "6": 21,
      "7": 22,
      "8": 23,
      "9": 24,
      ":": 25,
      ";": 26,
      "<": 27,
      "=": 28,
      ">": 29,
      "?": 30,
      "@": 31,
      "[": 32,
      "\\": 33,
      "]": 34,
      "^": 35,
      "_": 36,
      "`": 37,
      "a": 38,
      "b": 39,
      "c": 40,
      "d": 41,
      "e": 42,
      "f": 43,
      "g": 44,
      "h": 45,
      "i": 46,
      "j": 47,
      "k": 48,
      "l": 49,
      "m": 50,
      "n": 51,
      "o": 52,
      "p": 53,
      "q": 54,
      "r": 55,
      "s": 56,
      "t": 57,
      "u": 58,
      "v": 59,
      "w": 60,
      "x": 61,
      "y": 62,
      "z": 63,
      "{": 64,
      "|": 65,
      "}": 66,
      "~": 67,
      "": 68,
      "¡": 69,
      "£": 70,
      "¤": 71,
      "¥": 72,
      "§": 73,
      "©": 74,
      "«": 75,
      "¬": 76,
      "­": 77,
      "®": 78,
      "¯": 79,
      "°": 80,
      "±": 81,
      "²": 82,
      "³": 83,
      "´": 84,
      "µ": 85,
      "¶": 86,
      "·": 87,
      "¹": 88,
      "º": 89,
      "»": 90,
      "¼": 91,
      "¿": 92,
      "×": 93,
      "ß": 94,
      "÷": 95,
      "đ": 96,
      "ł": 97,
      "ə": 98,
      "ʒ": 99,
      "ʿ": 100,
      "ˀ": 101,
      "˃": 102,
      "ˈ": 103,
      "ː": 104,
      "˙": 105,
      "˚": 106,
      "˝": 107,
      "˟": 108,
      "ˮ": 109,
      "̀": 110,
      "́": 111,
      "̂": 112,
      "̃": 113,
      "̄": 114,
      "̆": 115,
      "̈": 116,
      "̉": 117,
      "̊": 118,
      "̋": 119,
      "̌": 120,
      "̎": 121,
      "̐": 122,
      "̑": 123,
      "̕": 124,
      "̛": 125,
      "̣": 126,
      "̥": 127,
      "̧": 128,
      "̵": 129,
      "̶": 130,
      "̷": 131,
      "̸": 132,
      "̽": 133,
      "͂": 134,
      "͘": 135,
      "͟": 136,
      "͢": 137,
      "ͣ": 138,
      "α": 139,
      "β": 140,
      "γ": 141,
      "δ": 142,
      "ε": 143,
      "η": 144,
      "θ": 145,
      "ι": 146,
      "κ": 147,
      "μ": 148,
      "ν": 149,
      "π": 150,
      "ρ": 151,
      "σ": 152,
      "τ": 153,
      "υ": 154,
      "χ": 155,
      "ω": 156,
      "а": 157,
      "б": 158,
      "в": 159,
      "д": 160,
      "е": 161,
      "з": 162,
      "и": 163,
      "к": 164,
      "л": 165,
      "м": 166,
      "н": 167,
      "о": 168,
      "п": 169,
      "р": 170,
      "с": 171,
      "т": 172,
      "у": 173,
      "ф": 174,
      "ц": 175,
      "ч": 176,
      "ы": 177,
      "ь": 178,
      "я": 179,
      "і": 180,
      "،": 181,
      "ا": 182,
      "ب": 183,
      "ة": 184,
      "ت": 185,
      "ث": 186,
      "ج": 187,
      "ح": 188,
      "خ": 189,
      "د": 190,
      "ذ": 191,
      "ر": 192,
      "ز": 193,
      "س": 194,
      "ش": 195,
      "ص": 196,
      "ض": 197,
      "ظ": 198,
      "ع": 199,
      "غ": 200,
      "ف": 201,
      "ق": 202,
      "ك": 203,
      "ل": 204,
      "م": 205,
      "ن": 206,
      "ه": 207,
      "و": 208,
      "ى": 209,
      "ي": 210,
      "ٔ": 211,
      "ٕ": 212,
      "ی": 213,
      "ग": 214,
      "त": 215,
      "य": 216,
      "र": 217,
      "स": 218,
      "ह": 219,
      "ा": 220,
      "्": 221,
      "ન": 222,
      "પ": 223,
      "લ": 224,
      "ஐ": 225,
      "ಠ": 226,
      "ก": 227,
      "ข": 228,
      "ค": 229,
      "ง": 230,
      "จ": 231,
      "ฉ": 232,
      "ช": 233,
      "ซ": 234,
      "ญ": 235,
      "ณ": 236,
      "ด": 237,
      "ต": 238,
      "ถ": 239,
      "ท": 240,
      "ธ": 241,
      "น": 242,
      "บ": 243,
      "ป": 244,
      "ผ": 245,
      "ฝ": 246,
      "พ": 247,
      "ฟ": 248,
      "ภ": 249,
      "ม": 250,
      "ย": 251,
      "ร": 252,
      "ฤ": 253,
      "ล": 254,
      "ว": 255,
      "ศ": 256,
      "ษ": 257,
      "ส": 258,
      "ห": 259,
      "อ": 260,
      "ฯ": 261,
      "ะ": 262,
      "ั": 263,
      "า": 264,
      "ิ": 265,
      "ี": 266,
      "ึ": 267,
      "ื": 268,
      "ุ": 269,
      "ู": 270,
      "เ": 271,
      "แ": 272,
      "โ": 273,
      "ใ": 274,
      "ไ": 275,
      "ๆ": 276,
      "็": 277,
      "่": 278,
      "้": 279,
      "๋": 280,
      "์": 281,
      "ํ": 282,
      "๑": 283,
      "ດ": 284,
      "ທ": 285,
      "ປ": 286,
      "ລ": 287,
      "ວ": 288,
      "ະ": 289,
      "າ": 290,
      "ເ": 291,
      "ᄀ": 292,
      "ᄁ": 293,
      "ᄂ": 294,
      "ᄃ": 295,
      "ᄄ": 296,
      "ᄅ": 297,
      "ᄆ": 298,
      "ᄇ": 299,
      "ᄈ": 300,
      "ᄉ": 301,
      "ᄊ": 302,
      "ᄋ": 303,
      "ᄌ": 304,
      "ᄍ": 305,
      "ᄎ": 306,
      "ᄏ": 307,
      "ᄐ": 308,
      "ᄑ": 309,
      "ᄒ": 310,
      "ᅟ": 311,
      "ᅠ": 312,
      "ᅡ": 313,
      "ᅢ": 314,
      "ᅣ": 315,
      "ᅤ": 316,
      "ᅥ": 317,
      "ᅦ": 318,
      "ᅧ": 319,
      "ᅨ": 320,
      "ᅩ": 321,
      "ᅪ": 322,
      "ᅫ": 323,
      "ᅬ": 324,
      "ᅭ": 325,
      "ᅮ": 326,
      "ᅯ": 327,
      "ᅰ": 328,
      "ᅱ": 329,
      "ᅲ": 330,
      "ᅳ": 331,
      "ᅴ": 332,
      "ᅵ": 333,
      "ᆍ": 334,
      "ᆞ": 335,
      "ᆢ": 336,
      "ᆨ": 337,
      "ᆩ": 338,
      "ᆪ": 339,
      "ᆫ": 340,
      "ᆬ": 341,
      "ᆭ": 342,
      "ᆮ": 343,
      "ᆯ": 344,
      "ᆰ": 345,
      "ᆱ": 346,
      "ᆲ": 347,
      "ᆳ": 348,
      "ᆴ": 349,
      "ᆵ": 350,
      "ᆶ": 351,
      "ᆷ": 352,
      "ᆸ": 353,
      "ᆹ": 354,
      "ᆺ": 355,
      "ᆻ": 356,
      "ᆼ": 357,
      "ᆽ": 358,
      "ᆾ": 359,
      "ᆿ": 360,
      "ᇀ": 361,
      "ᇁ": 362,
      "ᇂ": 363,
      "ᇣ": 364,
      "ᇿ": 365,
      "ᐃ": 366,
      "ᐧ": 367,
      "ᒺ": 368,
      "᙭": 369,
      "᛫": 370,
      "ឃ": 371,
      "ត": 372,
      "ព": 373,
      "ល": 374,
      "វ": 375,
      "ា": 376,
      "ិ": 377,
      "ᠮ": 378,
      "ᡝ": 379,
      "ᡤ": 380,
      "ᡩ": 381,
      "ᡳ": 382,
      "ᡵ": 383,
      "ᴄ": 384,
      "ᴘ": 385,
      "ᴛ": 386,
      "ᴠ": 387,
      "​": 388,
      "‌": 389,
      "‍": 390,
      "‎": 391,
      "‏": 392,
      "‐": 393,
      "‑": 394,
      "‒": 395,
      "–": 396,
      "—": 397,
      "―": 398,
      "‘": 399,
      "’": 400,
      "‚": 401,
      "‛": 402,
      "“": 403,
      "”": 404,
      "‟": 405,
      "†": 406,
      "•": 407,
      "‣": 408,
      "․": 409,
      "‥": 410,
      "…": 411,
      "‧": 412,
      "‪": 413,
      "‬": 414,
      "′": 415,
      "″": 416,
      "‵": 417,
      "‶": 418,
      "›": 419,
      "※": 420,
      "‼": 421,
      "⁂": 422,
      "⁃": 423,
      "⁎": 424,
      "⁑": 425,
      "⁜": 426,
      "⁠": 427,
      "⁴": 428,
      "⁵": 429,
      "⁾": 430,
      "ⁿ": 431,
      "₂": 432,
      "₄": 433,
      "₊": 434,
      "₩": 435,
      "⃕": 436,
      "⃞": 437,
      "⃣": 438,
      "℃": 439,
      "℅": 440,
      "ℓ": 441,
      "™": 442,
      "⅓": 443,
      "⅔": 444,
      "ⅰ": 445,
      "ⅱ": 446,
      "ⅲ": 447,
      "ⅳ": 448,
      "ⅴ": 449,
      "ⅵ": 450,
      "ⅶ": 451,
      "ⅷ": 452,
      "ⅸ": 453,
      "←": 454,
      "↑": 455,
      "→": 456,
      "↓": 457,
      "↔": 458,
      "↕": 459,
      "↗": 460,
      "↘": 461,
      "↙": 462,
      "↞": 463,
      "↠": 464,
      "↳": 465,
      "⇄": 466,
      "⇆": 467,
      "⇉": 468,
      "⇋": 469,
      "⇌": 470,
      "⇐": 471,
      "⇒": 472,
      "⇓": 473,
      "⇔": 474,
      "⇚": 475,
      "⇛": 476,
      "⇢": 477,
      "⇥": 478,
      "⇦": 479,
      "⇨": 480,
      "⇩": 481,
      "⇬": 482,
      "⇰": 483,
      "∂": 484,
      "∇": 485,
      "∎": 486,
      "∐": 487,
      "−": 488,
      "∘": 489,
      "∙": 490,
      "√": 491,
      "∝": 492,
      "∞": 493,
      "∠": 494,
      "∣": 495,
      "∪": 496,
      "∴": 497,
      "∵": 498,
      "∼": 499,
      "∽": 500,
      "≀": 501,
      "≒": 502,
      "≤": 503,
      "≥": 504,
      "≪": 505,
      "≫": 506,
      "⊙": 507,
      "⊝": 508,
      "⋅": 509,
      "⋇": 510,
      "⋯": 511,
      "⌂": 512,
      "⌈": 513,
      "⌉": 514,
      "⌋": 515,
      "⌌": 516,
      "⌜": 517,
      "⌟": 518,
      "⍟": 519,
      "⎝": 520,
      "⎠": 521,
      "⎡": 522,
      "⎦": 523,
      "⎫": 524,
      "⏩": 525,
      "⏪": 526,
      "⏭": 527,
      "①": 528,
      "②": 529,
      "③": 530,
      "④": 531,
      "⑤": 532,
      "⑥": 533,
      "⑦": 534,
      "⑧": 535,
      "⑨": 536,
      "⑩": 537,
      "⑪": 538,
      "⑫": 539,
      "⑬": 540,
      "⑭": 541,
      "⑮": 542,
      "⑯": 543,
      "⑰": 544,
      "⑱": 545,
      "⑲": 546,
      "⑳": 547,
      "⑴": 548,
      "⑵": 549,
      "⑶": 550,
      "⑷": 551,
      "⑸": 552,
      "⑹": 553,
      "⑺": 554,
      "⑻": 555,
      "⑼": 556,
      "⑽": 557,
      "⑾": 558,
      "⑿": 559,
      "⒈": 560,
      "⒉": 561,
      "⒊": 562,
      "⒋": 563,
      "⒌": 564,
      "⒜": 565,
      "⒝": 566,
      "ⓐ": 567,
      "ⓑ": 568,
      "ⓒ": 569,
      "ⓓ": 570,
      "ⓔ": 571,
      "ⓕ": 572,
      "ⓖ": 573,
      "ⓗ": 574,
      "ⓘ": 575,
      "ⓙ": 576,
      "ⓚ": 577,
      "ⓛ": 578,
      "ⓝ": 579,
      "ⓡ": 580,
      "⓫": 581,
      "⓬": 582,
      "⓵": 583,
      "⓶": 584,
      "⓷": 585,
      "⓸": 586,
      "⓹": 587,
      "⓺": 588,
      "⓻": 589,
      "⓼": 590,
      "─": 591,
      "━": 592,
      "│": 593,
      "┃": 594,
      "┌": 595,
      "┎": 596,
      "┐": 597,
      "┑": 598,
      "┓": 599,
      "└": 600,
      "┗": 601,
      "┘": 602,
      "├": 603,
      "┳": 604,
      "┴": 605,
      "═": 606,
      "▅": 607,
      "▇": 608,
      "█": 609,
      "▖": 610,
      "■": 611,
      "□": 612,
      "▢": 613,
      "▣": 614,
      "▩": 615,
      "▪": 616,
      "▫": 617,
      "▲": 618,
      "△": 619,
      "▶": 620,
      "▷": 621,
      "▸": 622,
      "►": 623,
      "▼": 624,
      "▽": 625,
      "◀": 626,
      "◁": 627,
      "◆": 628,
      "◇": 629,
      "◈": 630,
      "◉": 631,
      "◊": 632,
      "○": 633,
      "◌": 634,
      "◎": 635,
      "●": 636,
      "◐": 637,
      "◑": 638,
      "◦": 639,
      "◯": 640,
      "◼": 641,
      "◾": 642,
      "☀": 643,
      "☂": 644,
      "★": 645,
      "☆": 646,
      "☉": 647,
      "☎": 648,
      "☏": 649,
      "☐": 650,
      "☑": 651,
      "☓": 652,
      "☔": 653,
      "☘": 654,
      "☚": 655,
      "☛": 656,
      "☜": 657,
      "☝": 658,
      "☞": 659,
      "☟": 660,
      "☠": 661,
      "☢": 662,
      "☤": 663,
      "☯": 664,
      "☰": 665,
      "☱": 666,
      "☳": 667,
      "☴": 668,
      "☶": 669,
      "☷": 670,
      "☹": 671,
      "☺": 672,
      "☻": 673,
      "☼": 674,
      "♀": 675,
      "♂": 676,
      "♠": 677,
      "♡": 678,
      "♣": 679,
      "♤": 680,
      "♥": 681,
      "♦": 682,
      "♧": 683,
      "♨": 684,
      "♩": 685,
      "♪": 686,
      "♬": 687,
      "♭": 688,
      "♿": 689,
      "⚀": 690,
      "⚁": 691,
      "⚂": 692,
      "⚈": 693,
      "⚖": 694,
      "⚠": 695,
      "⚡": 696,
      "⚫": 697,
      "⚽": 698,
      "⚾": 699,
      "⛔": 700,
      "✅": 701,
      "✈": 702,
      "✊": 703,
      "✋": 704,
      "✌": 705,
      "✏": 706,
      "✔": 707,
      "✞": 708,
      "✡": 709,
      "✧": 710,
      "✨": 711,
      "✱": 712,
      "✴": 713,
      "✽": 714,
      "❈": 715,
      "❉": 716,
      "❊": 717,
      "❌": 718,
      "❍": 719,
      "❎": 720,
      "❏": 721,
      "❒": 722,
      "❖": 723,
      "❗": 724,
      "❘": 725,
      "❙": 726,
      "❝": 727,
      "❞": 728,
      "❢": 729,
      "❣": 730,
      "❤": 731,
      "❮": 732,
      "❯": 733,
      "❰": 734,
      "❱": 735,
      "❶": 736,
      "❷": 737,
      "❸": 738,
      "❹": 739,
      "❺": 740,
      "❻": 741,
      "❼": 742,
      "❽": 743,
      "❾": 744,
      "❿": 745,
      "➀": 746,
      "➁": 747,
      "➂": 748,
      "➃": 749,
      "➄": 750,
      "➅": 751,
      "➆": 752,
      "➇": 753,
      "➈": 754,
      "➉": 755,
      "➊": 756,
      "➋": 757,
      "➌": 758,
      "➍": 759,
      "➑": 760,
      "➔": 761,
      "➖": 762,
      "➜": 763,
      "➡": 764,
      "➩": 765,
      "➪": 766,
      "➫": 767,
      "➯": 768,
      "➰": 769,
      "➾": 770,
      "⟟": 771,
      "⟨": 772,
      "⟩": 773,
      "⟶": 774,
      "⟷": 775,
      "⟹": 776,
      "⥤": 777,
      "⦁": 778,
      "⦋": 779,
      "⦌": 780,
      "⦙": 781,
      "⦿": 782,
      "⬇": 783,
      "⬛": 784,
      "⭐": 785,
      "⭕": 786,
      "⺷": 787,
      "⼖": 788,
      "⼷": 789,
      "、": 790,
      "。": 791,
      "〃": 792,
      "〇": 793,
      "〈": 794,
      "〉": 795,
      "《": 796,
      "》": 797,
      "「": 798,
      "」": 799,
      "『": 800,
      "』": 801,
      "【": 802,
      "】": 803,
      "〓": 804,
      "〔": 805,
      "〕": 806,
      "〖": 807,
      "〗": 808,
      "〘": 809,
      "〙": 810,
      "〚": 811,
      "〛": 812,
      "〜": 813,
      "〞": 814,
      "〮": 815,
      "〱": 816,
      "あ": 817,
      "ぃ": 818,
      "い": 819,
      "う": 820,
      "ぇ": 821,
      "え": 822,
      "お": 823,
      "か": 824,
      "き": 825,
      "く": 826,
      "け": 827,
      "こ": 828,
      "さ": 829,
      "し": 830,
      "す": 831,
      "せ": 832,
      "そ": 833,
      "た": 834,
      "ち": 835,
      "っ": 836,
      "つ": 837,
      "て": 838,
      "と": 839,
      "な": 840,
      "に": 841,
      "ぬ": 842,
      "ね": 843,
      "の": 844,
      "は": 845,
      "ひ": 846,
      "ふ": 847,
      "へ": 848,
      "ほ": 849,
      "ま": 850,
      "み": 851,
      "む": 852,
      "め": 853,
      "も": 854,
      "ゃ": 855,
      "や": 856,
      "ゅ": 857,
      "ゆ": 858,
      "ょ": 859,
      "よ": 860,
      "ら": 861,
      "り": 862,
      "る": 863,
      "れ": 864,
      "ろ": 865,
      "わ": 866,
      "を": 867,
      "ん": 868,
      "゙": 869,
      "゚": 870,
      "ア": 871,
      "イ": 872,
      "ウ": 873,
      "ェ": 874,
      "エ": 875,
      "ォ": 876,
      "オ": 877,
      "カ": 878,
      "キ": 879,
      "ク": 880,
      "ケ": 881,
      "コ": 882,
      "サ": 883,
      "シ": 884,
      "ス": 885,
      "セ": 886,
      "ソ": 887,
      "タ": 888,
      "チ": 889,
      "ッ": 890,
      "ツ": 891,
      "テ": 892,
      "ト": 893,
      "ナ": 894,
      "ニ": 895,
      "ヌ": 896,
      "ネ": 897,
      "ノ": 898,
      "ハ": 899,
      "ヒ": 900,
      "フ": 901,
      "ヘ": 902,
      "ホ": 903,
      "マ": 904,
      "ミ": 905,
      "ム": 906,
      "メ": 907,
      "モ": 908,
      "ャ": 909,
      "ヤ": 910,
      "ュ": 911,
      "ユ": 912,
      "ョ": 913,
      "ヨ": 914,
      "ラ": 915,
      "リ": 916,
      "ル": 917,
      "レ": 918,
      "ロ": 919,
      "ワ": 920,
      "ヲ": 921,
      "ン": 922,
      "ヶ": 923,
      "・": 924,
      "ー": 925,
      "ㄧ": 926,
      "ㄱ": 927,
      "ㄲ": 928,
      "ㄳ": 929,
      "ㄴ": 930,
      "ㄶ": 931,
      "ㄷ": 932,
      "ㄸ": 933,
      "ㄹ": 934,
      "ㄺ": 935,
      "ㄻ": 936,
      "ㅀ": 937,
      "ㅁ": 938,
      "ㅂ": 939,
      "ㅃ": 940,
      "ㅄ": 941,
      "ㅅ": 942,
      "ㅆ": 943,
      "ㅇ": 944,
      "ㅈ": 945,
      "ㅉ": 946,
      "ㅊ": 947,
      "ㅋ": 948,
      "ㅌ": 949,
      "ㅍ": 950,
      "ㅎ": 951,
      "ㅏ": 952,
      "ㅐ": 953,
      "ㅑ": 954,
      "ㅒ": 955,
      "ㅓ": 956,
      "ㅔ": 957,
      "ㅕ": 958,
      "ㅖ": 959,
      "ㅗ": 960,
      "ㅘ": 961,
      "ㅙ": 962,
      "ㅚ": 963,
      "ㅛ": 964,
      "ㅜ": 965,
      "ㅝ": 966,
      "ㅟ": 967,
      "ㅠ": 968,
      "ㅡ": 969,
      "ㅢ": 970,
      "ㅣ": 971,
      "ㅦ": 972,
      "ㅧ": 973,
      "ㅭ": 974,
      "ㅸ": 975,
      "ㅿ": 976,
      "ㆁ": 977,
      "ㆄ": 978,
      "ㆆ": 979,
      "ㆍ": 980,
      "㈀": 981,
      "㈁": 982,
      "㈂": 983,
      "㈃": 984,
      "㈎": 985,
      "㈏": 986,
      "㈐": 987,
      "㈔": 988,
      "㈜": 989,
      "㉑": 990,
      "㉒": 991,
      "㉓": 992,
      "㉔": 993,
      "㉙": 994,
      "㉠": 995,
      "㉡": 996,
      "㉢": 997,
      "㉣": 998,
      "㉤": 999,
      "㉥": 1000,
      "㉦": 1001,
      "㉧": 1002,
      "㉨": 1003,
      "㉩": 1004,
      "㉪": 1005,
      "㉮": 1006,
      "㉯": 1007,
      "㉰": 1008,
      "㉱": 1009,
      "㉶": 1010,
      "㉿": 1011,
      "㎉": 1012,
      "㎍": 1013,
      "㎎": 1014,
      "㎏": 1015,
      "㎐": 1016,
      "㎖": 1017,
      "㎘": 1018,
      "㎚": 1019,
      "㎛": 1020,
      "㎜": 1021,
      "㎝": 1022,
      "㎞": 1023,
      "㎟": 1024,
      "㎠": 1025,
      "㎡": 1026,
      "㎢": 1027,
      "㎣": 1028,
      "㎤": 1029,
      "㎥": 1030,
      "㎸": 1031,
      "㎾": 1032,
      "㎿": 1033,
      "㏈": 1034,
      "㏊": 1035,
      "㏓": 1036,
      "㏜": 1037,
      "一": 1038,
      "丁": 1039,
      "七": 1040,
      "万": 1041,
      "丈": 1042,
      "三": 1043,
      "上": 1044,
      "下": 1045,
      "不": 1046,
      "与": 1047,
      "丑": 1048,
      "且": 1049,
      "世": 1050,
      "丙": 1051,
      "业": 1052,
      "东": 1053,
      "两": 1054,
      "个": 1055,
      "中": 1056,
      "丸": 1057,
      "丹": 1058,
      "为": 1059,
      "主": 1060,
      "举": 1061,
      "丿": 1062,
      "乃": 1063,
      "久": 1064,
      "乇": 1065,
      "么": 1066,
      "义": 1067,
      "之": 1068,
      "乎": 1069,
      "乏": 1070,
      "乐": 1071,
      "乘": 1072,
      "乙": 1073,
      "九": 1074,
      "乞": 1075,
      "也": 1076,
      "习": 1077,
      "乱": 1078,
      "乾": 1079,
      "亂": 1080,
      "了": 1081,
      "亇": 1082,
      "予": 1083,
      "争": 1084,
      "事": 1085,
      "二": 1086,
      "于": 1087,
      "云": 1088,
      "互": 1089,
      "五": 1090,
      "井": 1091,
      "亚": 1092,
      "些": 1093,
      "亜": 1094,
      "亞": 1095,
      "亡": 1096,
      "交": 1097,
      "亥": 1098,
      "亦": 1099,
      "产": 1100,
      "亨": 1101,
      "享": 1102,
      "京": 1103,
      "亭": 1104,
      "亮": 1105,
      "亲": 1106,
      "人": 1107,
      "亻": 1108,
      "什": 1109,
      "仁": 1110,
      "仄": 1111,
      "仅": 1112,
      "今": 1113,
      "介": 1114,
      "仍": 1115,
      "从": 1116,
      "仓": 1117,
      "仔": 1118,
      "仕": 1119,
      "他": 1120,
      "付": 1121,
      "仙": 1122,
      "代": 1123,
      "令": 1124,
      "以": 1125,
      "们": 1126,
      "仮": 1127,
      "仰": 1128,
      "仲": 1129,
      "件": 1130,
      "价": 1131,
      "任": 1132,
      "份": 1133,
      "企": 1134,
      "伊": 1135,
      "伏": 1136,
      "休": 1137,
      "优": 1138,
      "会": 1139,
      "伤": 1140,
      "伯": 1141,
      "伴": 1142,
      "伸": 1143,
      "似": 1144,
      "伽": 1145,
      "佃": 1146,
      "但": 1147,
      "位": 1148,
      "低": 1149,
      "住": 1150,
      "佐": 1151,
      "体": 1152,
      "何": 1153,
      "余": 1154,
      "佛": 1155,
      "作": 1156,
      "佞": 1157,
      "你": 1158,
      "佩": 1159,
      "佳": 1160,
      "佷": 1161,
      "使": 1162,
      "來": 1163,
      "侈": 1164,
      "例": 1165,
      "供": 1166,
      "依": 1167,
      "価": 1168,
      "侨": 1169,
      "侮": 1170,
      "侵": 1171,
      "侶": 1172,
      "便": 1173,
      "係": 1174,
      "促": 1175,
      "俄": 1176,
      "俊": 1177,
      "俗": 1178,
      "保": 1179,
      "俟": 1180,
      "俠": 1181,
      "信": 1182,
      "修": 1183,
      "俱": 1184,
      "俸": 1185,
      "倂": 1186,
      "倉": 1187,
      "個": 1188,
      "倍": 1189,
      "們": 1190,
      "倒": 1191,
      "倖": 1192,
      "候": 1193,
      "倚": 1194,
      "借": 1195,
      "倡": 1196,
      "値": 1197,
      "倫": 1198,
      "倭": 1199,
      "倻": 1200,
      "值": 1201,
      "倾": 1202,
      "假": 1203,
      "偉": 1204,
      "偎": 1205,
      "偏": 1206,
      "偕": 1207,
      "做": 1208,
      "停": 1209,
      "健": 1210,
      "側": 1211,
      "偶": 1212,
      "偸": 1213,
      "傀": 1214,
      "傅": 1215,
      "傍": 1216,
      "備": 1217,
      "催": 1218,
      "傭": 1219,
      "傲": 1220,
      "傳": 1221,
      "債": 1222,
      "傷": 1223,
      "傾": 1224,
      "僉": 1225,
      "像": 1226,
      "僕": 1227,
      "僚": 1228,
      "僞": 1229,
      "僥": 1230,
      "僧": 1231,
      "僭": 1232,
      "價": 1233,
      "僻": 1234,
      "儀": 1235,
      "億": 1236,
      "儋": 1237,
      "儒": 1238,
      "償": 1239,
      "優": 1240,
      "儿": 1241,
      "元": 1242,
      "兄": 1243,
      "充": 1244,
      "兆": 1245,
      "兇": 1246,
      "先": 1247,
      "光": 1248,
      "克": 1249,
      "免": 1250,
      "兎": 1251,
      "兒": 1252,
      "入": 1253,
      "內": 1254,
      "全": 1255,
      "兩": 1256,
      "兪": 1257,
      "八": 1258,
      "公": 1259,
      "六": 1260,
      "兮": 1261,
      "兰": 1262,
      "共": 1263,
      "关": 1264,
      "兵": 1265,
      "其": 1266,
      "具": 1267,
      "典": 1268,
      "养": 1269,
      "冂": 1270,
      "内": 1271,
      "册": 1272,
      "再": 1273,
      "冒": 1274,
      "冗": 1275,
      "写": 1276,
      "冠": 1277,
      "冤": 1278,
      "冥": 1279,
      "冬": 1280,
      "冰": 1281,
      "决": 1282,
      "况": 1283,
      "冶": 1284,
      "冷": 1285,
      "准": 1286,
      "凍": 1287,
      "凜": 1288,
      "几": 1289,
      "凡": 1290,
      "処": 1291,
      "凰": 1292,
      "凵": 1293,
      "凶": 1294,
      "出": 1295,
      "分": 1296,
      "切": 1297,
      "刊": 1298,
      "刑": 1299,
      "划": 1300,
      "刖": 1301,
      "列": 1302,
      "则": 1303,
      "初": 1304,
      "判": 1305,
      "別": 1306,
      "利": 1307,
      "别": 1308,
      "到": 1309,
      "刱": 1310,
      "制": 1311,
      "券": 1312,
      "刹": 1313,
      "刺": 1314,
      "刻": 1315,
      "則": 1316,
      "削": 1317,
      "前": 1318,
      "剔": 1319,
      "剖": 1320,
      "剛": 1321,
      "剝": 1322,
      "副": 1323,
      "割": 1324,
      "創": 1325,
      "剽": 1326,
      "劃": 1327,
      "劇": 1328,
      "劈": 1329,
      "劉": 1330,
      "劍": 1331,
      "劑": 1332,
      "力": 1333,
      "功": 1334,
      "加": 1335,
      "务": 1336,
      "劣": 1337,
      "动": 1338,
      "助": 1339,
      "努": 1340,
      "劫": 1341,
      "励": 1342,
      "劳": 1343,
      "効": 1344,
      "劾": 1345,
      "勃": 1346,
      "勅": 1347,
      "勇": 1348,
      "勉": 1349,
      "動": 1350,
      "勘": 1351,
      "務": 1352,
      "勝": 1353,
      "勞": 1354,
      "募": 1355,
      "勢": 1356,
      "勤": 1357,
      "勳": 1358,
      "勸": 1359,
      "勿": 1360,
      "包": 1361,
      "匈": 1362,
      "匕": 1363,
      "化": 1364,
      "北": 1365,
      "匙": 1366,
      "匚": 1367,
      "匠": 1368,
      "匡": 1369,
      "匣": 1370,
      "匪": 1371,
      "匹": 1372,
      "区": 1373,
      "医": 1374,
      "匿": 1375,
      "區": 1376,
      "十": 1377,
      "千": 1378,
      "午": 1379,
      "半": 1380,
      "华": 1381,
      "卑": 1382,
      "卒": 1383,
      "卓": 1384,
      "協": 1385,
      "单": 1386,
      "卖": 1387,
      "南": 1388,
      "博": 1389,
      "卜": 1390,
      "卞": 1391,
      "占": 1392,
      "卡": 1393,
      "卦": 1394,
      "卫": 1395,
      "卯": 1396,
      "印": 1397,
      "危": 1398,
      "即": 1399,
      "却": 1400,
      "卵": 1401,
      "卷": 1402,
      "卽": 1403,
      "厚": 1404,
      "原": 1405,
      "厥": 1406,
      "去": 1407,
      "县": 1408,
      "参": 1409,
      "參": 1410,
      "又": 1411,
      "及": 1412,
      "友": 1413,
      "双": 1414,
      "反": 1415,
      "发": 1416,
      "叔": 1417,
      "取": 1418,
      "受": 1419,
      "变": 1420,
      "叛": 1421,
      "叡": 1422,
      "口": 1423,
      "古": 1424,
      "句": 1425,
      "另": 1426,
      "只": 1427,
      "叫": 1428,
      "可": 1429,
      "台": 1430,
      "史": 1431,
      "右": 1432,
      "号": 1433,
      "司": 1434,
      "各": 1435,
      "合": 1436,
      "吉": 1437,
      "吊": 1438,
      "同": 1439,
      "名": 1440,
      "后": 1441,
      "吏": 1442,
      "吐": 1443,
      "向": 1444,
      "吗": 1445,
      "君": 1446,
      "吟": 1447,
      "否": 1448,
      "含": 1449,
      "吳": 1450,
      "吴": 1451,
      "吸": 1452,
      "吹": 1453,
      "吽": 1454,
      "吾": 1455,
      "呂": 1456,
      "呆": 1457,
      "呈": 1458,
      "告": 1459,
      "员": 1460,
      "呛": 1461,
      "周": 1462,
      "味": 1463,
      "呼": 1464,
      "命": 1465,
      "和": 1466,
      "咸": 1467,
      "哀": 1468,
      "品": 1469,
      "哇": 1470,
      "哈": 1471,
      "响": 1472,
      "員": 1473,
      "哭": 1474,
      "哲": 1475,
      "唐": 1476,
      "唬": 1477,
      "唯": 1478,
      "唱": 1479,
      "唾": 1480,
      "商": 1481,
      "問": 1482,
      "善": 1483,
      "喆": 1484,
      "喜": 1485,
      "喝": 1486,
      "喩": 1487,
      "喪": 1488,
      "單": 1489,
      "営": 1490,
      "喻": 1491,
      "嗤": 1492,
      "嘉": 1493,
      "嘲": 1494,
      "器": 1495,
      "噫": 1496,
      "嚴": 1497,
      "囊": 1498,
      "囑": 1499,
      "囚": 1500,
      "四": 1501,
      "回": 1502,
      "因": 1503,
      "团": 1504,
      "団": 1505,
      "园": 1506,
      "困": 1507,
      "围": 1508,
      "固": 1509,
      "国": 1510,
      "图": 1511,
      "圈": 1512,
      "國": 1513,
      "圍": 1514,
      "園": 1515,
      "圓": 1516,
      "圖": 1517,
      "團": 1518,
      "土": 1519,
      "在": 1520,
      "圭": 1521,
      "地": 1522,
      "圳": 1523,
      "址": 1524,
      "坂": 1525,
      "均": 1526,
      "坊": 1527,
      "坎": 1528,
      "坐": 1529,
      "坑": 1530,
      "坤": 1531,
      "坦": 1532,
      "坪": 1533,
      "垈": 1534,
      "型": 1535,
      "垠": 1536,
      "垢": 1537,
      "垣": 1538,
      "城": 1539,
      "域": 1540,
      "執": 1541,
      "培": 1542,
      "基": 1543,
      "堀": 1544,
      "堂": 1545,
      "堆": 1546,
      "堊": 1547,
      "堡": 1548,
      "堪": 1549,
      "堯": 1550,
      "堰": 1551,
      "報": 1552,
      "場": 1553,
      "塔": 1554,
      "塗": 1555,
      "塘": 1556,
      "塚": 1557,
      "塞": 1558,
      "塵": 1559,
      "境": 1560,
      "墓": 1561,
      "増": 1562,
      "增": 1563,
      "墟": 1564,
      "墨": 1565,
      "墮": 1566,
      "墳": 1567,
      "墾": 1568,
      "壇": 1569,
      "壓": 1570,
      "壞": 1571,
      "壤": 1572,
      "士": 1573,
      "壬": 1574,
      "壻": 1575,
      "壽": 1576,
      "备": 1577,
      "変": 1578,
      "复": 1579,
      "夏": 1580,
      "夕": 1581,
      "外": 1582,
      "多": 1583,
      "夜": 1584,
      "够": 1585,
      "夢": 1586,
      "大": 1587,
      "天": 1588,
      "太": 1589,
      "夫": 1590,
      "央": 1591,
      "失": 1592,
      "夷": 1593,
      "奇": 1594,
      "奈": 1595,
      "奉": 1596,
      "奎": 1597,
      "奏": 1598,
      "契": 1599,
      "奔": 1600,
      "奚": 1601,
      "奢": 1602,
      "奪": 1603,
      "奭": 1604,
      "奮": 1605,
      "女": 1606,
      "奴": 1607,
      "奸": 1608,
      "她": 1609,
      "好": 1610,
      "如": 1611,
      "妃": 1612,
      "妄": 1613,
      "妇": 1614,
      "妓": 1615,
      "妙": 1616,
      "妥": 1617,
      "妨": 1618,
      "妹": 1619,
      "妻": 1620,
      "妾": 1621,
      "姊": 1622,
      "始": 1623,
      "姐": 1624,
      "姑": 1625,
      "姓": 1626,
      "委": 1627,
      "姙": 1628,
      "姚": 1629,
      "姜": 1630,
      "姦": 1631,
      "姪": 1632,
      "姬": 1633,
      "威": 1634,
      "娘": 1635,
      "娥": 1636,
      "娼": 1637,
      "婆": 1638,
      "婚": 1639,
      "婦": 1640,
      "婴": 1641,
      "媛": 1642,
      "媤": 1643,
      "嫁": 1644,
      "嫌": 1645,
      "嫖": 1646,
      "嫚": 1647,
      "嫡": 1648,
      "嫣": 1649,
      "嬉": 1650,
      "嬪": 1651,
      "孀": 1652,
      "子": 1653,
      "孑": 1654,
      "孔": 1655,
      "字": 1656,
      "存": 1657,
      "孙": 1658,
      "孝": 1659,
      "孟": 1660,
      "季": 1661,
      "孤": 1662,
      "学": 1663,
      "孩": 1664,
      "孫": 1665,
      "學": 1666,
      "宀": 1667,
      "宁": 1668,
      "宅": 1669,
      "宇": 1670,
      "守": 1671,
      "安": 1672,
      "宋": 1673,
      "完": 1674,
      "宗": 1675,
      "官": 1676,
      "宙": 1677,
      "定": 1678,
      "宜": 1679,
      "宝": 1680,
      "实": 1681,
      "実": 1682,
      "客": 1683,
      "宣": 1684,
      "室": 1685,
      "宮": 1686,
      "宰": 1687,
      "害": 1688,
      "宴": 1689,
      "家": 1690,
      "容": 1691,
      "宿": 1692,
      "寃": 1693,
      "寅": 1694,
      "密": 1695,
      "寇": 1696,
      "富": 1697,
      "寒": 1698,
      "察": 1699,
      "實": 1700,
      "寧": 1701,
      "寨": 1702,
      "審": 1703,
      "寫": 1704,
      "寬": 1705,
      "寶": 1706,
      "寸": 1707,
      "对": 1708,
      "寺": 1709,
      "导": 1710,
      "対": 1711,
      "寿": 1712,
      "封": 1713,
      "射": 1714,
      "将": 1715,
      "將": 1716,
      "專": 1717,
      "尉": 1718,
      "尊": 1719,
      "尋": 1720,
      "對": 1721,
      "導": 1722,
      "小": 1723,
      "少": 1724,
      "尔": 1725,
      "尖": 1726,
      "尙": 1727,
      "就": 1728,
      "尸": 1729,
      "尹": 1730,
      "尺": 1731,
      "尽": 1732,
      "尾": 1733,
      "尿": 1734,
      "局": 1735,
      "层": 1736,
      "居": 1737,
      "屈": 1738,
      "屋": 1739,
      "屍": 1740,
      "展": 1741,
      "属": 1742,
      "屠": 1743,
      "層": 1744,
      "履": 1745,
      "屬": 1746,
      "屯": 1747,
      "山": 1748,
      "岁": 1749,
      "岐": 1750,
      "岛": 1751,
      "岡": 1752,
      "岳": 1753,
      "岸": 1754,
      "峙": 1755,
      "峯": 1756,
      "峰": 1757,
      "峴": 1758,
      "島": 1759,
      "峻": 1760,
      "峽": 1761,
      "崇": 1762,
      "崎": 1763,
      "崔": 1764,
      "崙": 1765,
      "崧": 1766,
      "崩": 1767,
      "嶋": 1768,
      "嶺": 1769,
      "嶼": 1770,
      "嶽": 1771,
      "川": 1772,
      "州": 1773,
      "巢": 1774,
      "工": 1775,
      "左": 1776,
      "巧": 1777,
      "巨": 1778,
      "差": 1779,
      "己": 1780,
      "已": 1781,
      "巳": 1782,
      "币": 1783,
      "市": 1784,
      "布": 1785,
      "帆": 1786,
      "希": 1787,
      "帝": 1788,
      "帥": 1789,
      "師": 1790,
      "席": 1791,
      "帮": 1792,
      "帶": 1793,
      "常": 1794,
      "帽": 1795,
      "幅": 1796,
      "幇": 1797,
      "幌": 1798,
      "幕": 1799,
      "幟": 1800,
      "幢": 1801,
      "幣": 1802,
      "幫": 1803,
      "干": 1804,
      "平": 1805,
      "年": 1806,
      "并": 1807,
      "幸": 1808,
      "幹": 1809,
      "幻": 1810,
      "幼": 1811,
      "幽": 1812,
      "幾": 1813,
      "广": 1814,
      "広": 1815,
      "庆": 1816,
      "庇": 1817,
      "床": 1818,
      "序": 1819,
      "应": 1820,
      "底": 1821,
      "店": 1822,
      "庚": 1823,
      "府": 1824,
      "庠": 1825,
      "度": 1826,
      "座": 1827,
      "庫": 1828,
      "庭": 1829,
      "庵": 1830,
      "庶": 1831,
      "康": 1832,
      "庸": 1833,
      "廈": 1834,
      "廉": 1835,
      "廛": 1836,
      "廟": 1837,
      "廢": 1838,
      "廣": 1839,
      "廳": 1840,
      "延": 1841,
      "廷": 1842,
      "建": 1843,
      "开": 1844,
      "弄": 1845,
      "弊": 1846,
      "弋": 1847,
      "式": 1848,
      "弓": 1849,
      "弔": 1850,
      "引": 1851,
      "弗": 1852,
      "弘": 1853,
      "弛": 1854,
      "弟": 1855,
      "张": 1856,
      "弦": 1857,
      "弧": 1858,
      "弱": 1859,
      "張": 1860,
      "強": 1861,
      "强": 1862,
      "弼": 1863,
      "弾": 1864,
      "彈": 1865,
      "彌": 1866,
      "归": 1867,
      "当": 1868,
      "彗": 1869,
      "彡": 1870,
      "形": 1871,
      "彩": 1872,
      "彫": 1873,
      "彰": 1874,
      "影": 1875,
      "彷": 1876,
      "役": 1877,
      "彼": 1878,
      "彿": 1879,
      "往": 1880,
      "待": 1881,
      "很": 1882,
      "律": 1883,
      "後": 1884,
      "徐": 1885,
      "徒": 1886,
      "得": 1887,
      "徙": 1888,
      "從": 1889,
      "御": 1890,
      "徨": 1891,
      "復": 1892,
      "循": 1893,
      "微": 1894,
      "徵": 1895,
      "德": 1896,
      "徹": 1897,
      "心": 1898,
      "必": 1899,
      "忆": 1900,
      "忌": 1901,
      "忍": 1902,
      "志": 1903,
      "忘": 1904,
      "忙": 1905,
      "忠": 1906,
      "忧": 1907,
      "快": 1908,
      "念": 1909,
      "忽": 1910,
      "忿": 1911,
      "态": 1912,
      "怒": 1913,
      "怜": 1914,
      "思": 1915,
      "怠": 1916,
      "怡": 1917,
      "急": 1918,
      "性": 1919,
      "怨": 1920,
      "怩": 1921,
      "怪": 1922,
      "总": 1923,
      "恆": 1924,
      "恋": 1925,
      "恐": 1926,
      "恒": 1927,
      "恕": 1928,
      "恣": 1929,
      "恤": 1930,
      "恥": 1931,
      "恨": 1932,
      "恩": 1933,
      "恭": 1934,
      "息": 1935,
      "悅": 1936,
      "悔": 1937,
      "悖": 1938,
      "悚": 1939,
      "悛": 1940,
      "悠": 1941,
      "患": 1942,
      "您": 1943,
      "悲": 1944,
      "悶": 1945,
      "悼": 1946,
      "情": 1947,
      "惑": 1948,
      "惟": 1949,
      "惠": 1950,
      "惡": 1951,
      "惰": 1952,
      "想": 1953,
      "惶": 1954,
      "惹": 1955,
      "惻": 1956,
      "意": 1957,
      "愚": 1958,
      "愛": 1959,
      "感": 1960,
      "愧": 1961,
      "愼": 1962,
      "愾": 1963,
      "愿": 1964,
      "慄": 1965,
      "慇": 1966,
      "態": 1967,
      "慎": 1968,
      "慕": 1969,
      "慘": 1970,
      "慢": 1971,
      "慣": 1972,
      "慧": 1973,
      "慨": 1974,
      "慮": 1975,
      "慰": 1976,
      "慳": 1977,
      "慶": 1978,
      "慾": 1979,
      "憂": 1980,
      "憤": 1981,
      "憲": 1982,
      "憺": 1983,
      "憾": 1984,
      "懇": 1985,
      "懈": 1986,
      "應": 1987,
      "懐": 1988,
      "懟": 1989,
      "懲": 1990,
      "懷": 1991,
      "懸": 1992,
      "懼": 1993,
      "戀": 1994,
      "戊": 1995,
      "戌": 1996,
      "戍": 1997,
      "戎": 1998,
      "成": 1999,
      "我": 2000,
      "戒": 2001,
      "或": 2002,
      "戟": 2003,
      "截": 2004,
      "戰": 2005,
      "戱": 2006,
      "戲": 2007,
      "戴": 2008,
      "戶": 2009,
      "房": 2010,
      "所": 2011,
      "扁": 2012,
      "手": 2013,
      "才": 2014,
      "打": 2015,
      "扮": 2016,
      "扶": 2017,
      "承": 2018,
      "技": 2019,
      "抄": 2020,
      "抉": 2021,
      "把": 2022,
      "抑": 2023,
      "投": 2024,
      "抗": 2025,
      "折": 2026,
      "抚": 2027,
      "抛": 2028,
      "択": 2029,
      "护": 2030,
      "报": 2031,
      "披": 2032,
      "抵": 2033,
      "抹": 2034,
      "拂": 2035,
      "拉": 2036,
      "拍": 2037,
      "拒": 2038,
      "拔": 2039,
      "拘": 2040,
      "拙": 2041,
      "招": 2042,
      "拜": 2043,
      "择": 2044,
      "拯": 2045,
      "拳": 2046,
      "拷": 2047,
      "拼": 2048,
      "拿": 2049,
      "持": 2050,
      "指": 2051,
      "按": 2052,
      "挫": 2053,
      "振": 2054,
      "挺": 2055,
      "挽": 2056,
      "捋": 2057,
      "捏": 2058,
      "损": 2059,
      "捨": 2060,
      "据": 2061,
      "捲": 2062,
      "捺": 2063,
      "授": 2064,
      "掌": 2065,
      "排": 2066,
      "掘": 2067,
      "採": 2068,
      "接": 2069,
      "推": 2070,
      "措": 2071,
      "掲": 2072,
      "描": 2073,
      "提": 2074,
      "揚": 2075,
      "換": 2076,
      "握": 2077,
      "揭": 2078,
      "揮": 2079,
      "援": 2080,
      "損": 2081,
      "搏": 2082,
      "搜": 2083,
      "搪": 2084,
      "搬": 2085,
      "携": 2086,
      "摘": 2087,
      "摠": 2088,
      "摩": 2089,
      "撑": 2090,
      "撞": 2091,
      "撤": 2092,
      "撫": 2093,
      "撮": 2094,
      "撲": 2095,
      "撻": 2096,
      "擅": 2097,
      "擇": 2098,
      "擊": 2099,
      "操": 2100,
      "擔": 2101,
      "據": 2102,
      "擧": 2103,
      "擬": 2104,
      "擲": 2105,
      "擴": 2106,
      "攪": 2107,
      "支": 2108,
      "收": 2109,
      "改": 2110,
      "攻": 2111,
      "放": 2112,
      "政": 2113,
      "故": 2114,
      "效": 2115,
      "敌": 2116,
      "敍": 2117,
      "敎": 2118,
      "敏": 2119,
      "救": 2120,
      "敖": 2121,
      "敗": 2122,
      "敘": 2123,
      "教": 2124,
      "敢": 2125,
      "散": 2126,
      "敦": 2127,
      "敬": 2128,
      "数": 2129,
      "敲": 2130,
      "整": 2131,
      "敵": 2132,
      "敷": 2133,
      "數": 2134,
      "斂": 2135,
      "文": 2136,
      "斗": 2137,
      "料": 2138,
      "斜": 2139,
      "斥": 2140,
      "斧": 2141,
      "斬": 2142,
      "断": 2143,
      "斯": 2144,
      "新": 2145,
      "斷": 2146,
      "方": 2147,
      "於": 2148,
      "施": 2149,
      "旅": 2150,
      "旋": 2151,
      "族": 2152,
      "旗": 2153,
      "无": 2154,
      "旣": 2155,
      "日": 2156,
      "旦": 2157,
      "旧": 2158,
      "旨": 2159,
      "早": 2160,
      "旬": 2161,
      "旭": 2162,
      "时": 2163,
      "旺": 2164,
      "昆": 2165,
      "昇": 2166,
      "昊": 2167,
      "昌": 2168,
      "明": 2169,
      "昏": 2170,
      "易": 2171,
      "星": 2172,
      "映": 2173,
      "春": 2174,
      "昧": 2175,
      "昭": 2176,
      "是": 2177,
      "昶": 2178,
      "昻": 2179,
      "显": 2180,
      "時": 2181,
      "晉": 2182,
      "晋": 2183,
      "晝": 2184,
      "晟": 2185,
      "晤": 2186,
      "晩": 2187,
      "普": 2188,
      "景": 2189,
      "晴": 2190,
      "智": 2191,
      "暇": 2192,
      "暖": 2193,
      "暗": 2194,
      "暫": 2195,
      "暮": 2196,
      "暴": 2197,
      "暹": 2198,
      "曆": 2199,
      "曉": 2200,
      "曚": 2201,
      "曨": 2202,
      "曰": 2203,
      "曲": 2204,
      "曳": 2205,
      "更": 2206,
      "書": 2207,
      "曹": 2208,
      "曺": 2209,
      "曾": 2210,
      "替": 2211,
      "最": 2212,
      "會": 2213,
      "月": 2214,
      "有": 2215,
      "朋": 2216,
      "服": 2217,
      "朗": 2218,
      "望": 2219,
      "朝": 2220,
      "期": 2221,
      "木": 2222,
      "未": 2223,
      "末": 2224,
      "本": 2225,
      "札": 2226,
      "朱": 2227,
      "朴": 2228,
      "朽": 2229,
      "权": 2230,
      "李": 2231,
      "材": 2232,
      "村": 2233,
      "杓": 2234,
      "杖": 2235,
      "杜": 2236,
      "束": 2237,
      "条": 2238,
      "来": 2239,
      "杨": 2240,
      "杯": 2241,
      "東": 2242,
      "杳": 2243,
      "松": 2244,
      "板": 2245,
      "极": 2246,
      "枋": 2247,
      "林": 2248,
      "果": 2249,
      "枝": 2250,
      "柄": 2251,
      "柏": 2252,
      "某": 2253,
      "染": 2254,
      "柔": 2255,
      "柤": 2256,
      "查": 2257,
      "柱": 2258,
      "柳": 2259,
      "柵": 2260,
      "査": 2261,
      "栗": 2262,
      "校": 2263,
      "栢": 2264,
      "株": 2265,
      "样": 2266,
      "核": 2267,
      "根": 2268,
      "格": 2269,
      "栽": 2270,
      "桂": 2271,
      "案": 2272,
      "桎": 2273,
      "桓": 2274,
      "梁": 2275,
      "梅": 2276,
      "梏": 2277,
      "條": 2278,
      "梧": 2279,
      "梨": 2280,
      "棄": 2281,
      "棒": 2282,
      "棗": 2283,
      "棟": 2284,
      "森": 2285,
      "棺": 2286,
      "椅": 2287,
      "植": 2288,
      "椎": 2289,
      "椿": 2290,
      "楊": 2291,
      "楓": 2292,
      "楚": 2293,
      "楫": 2294,
      "業": 2295,
      "極": 2296,
      "概": 2297,
      "榕": 2298,
      "榮": 2299,
      "槇": 2300,
      "構": 2301,
      "槍": 2302,
      "槪": 2303,
      "槿": 2304,
      "樂": 2305,
      "樊": 2306,
      "樑": 2307,
      "樓": 2308,
      "標": 2309,
      "樞": 2310,
      "模": 2311,
      "樣": 2312,
      "権": 2313,
      "横": 2314,
      "樵": 2315,
      "樹": 2316,
      "樽": 2317,
      "橋": 2318,
      "機": 2319,
      "橡": 2320,
      "橫": 2321,
      "檀": 2322,
      "檢": 2323,
      "檣": 2324,
      "欄": 2325,
      "權": 2326,
      "欝": 2327,
      "欠": 2328,
      "次": 2329,
      "欧": 2330,
      "欲": 2331,
      "欺": 2332,
      "欽": 2333,
      "款": 2334,
      "歌": 2335,
      "歎": 2336,
      "歐": 2337,
      "歡": 2338,
      "止": 2339,
      "正": 2340,
      "此": 2341,
      "步": 2342,
      "武": 2343,
      "歲": 2344,
      "歳": 2345,
      "歷": 2346,
      "歸": 2347,
      "死": 2348,
      "殃": 2349,
      "殉": 2350,
      "殊": 2351,
      "殖": 2352,
      "殘": 2353,
      "殮": 2354,
      "段": 2355,
      "殷": 2356,
      "殺": 2357,
      "殿": 2358,
      "毁": 2359,
      "毅": 2360,
      "母": 2361,
      "每": 2362,
      "毒": 2363,
      "比": 2364,
      "毕": 2365,
      "毛": 2366,
      "毫": 2367,
      "氏": 2368,
      "民": 2369,
      "氣": 2370,
      "水": 2371,
      "永": 2372,
      "汀": 2373,
      "求": 2374,
      "汇": 2375,
      "汉": 2376,
      "汎": 2377,
      "汗": 2378,
      "汚": 2379,
      "汝": 2380,
      "江": 2381,
      "池": 2382,
      "汤": 2383,
      "汪": 2384,
      "汲": 2385,
      "決": 2386,
      "汽": 2387,
      "汾": 2388,
      "沁": 2389,
      "沃": 2390,
      "沈": 2391,
      "沒": 2392,
      "沖": 2393,
      "沙": 2394,
      "没": 2395,
      "沮": 2396,
      "河": 2397,
      "沸": 2398,
      "油": 2399,
      "治": 2400,
      "沿": 2401,
      "況": 2402,
      "泉": 2403,
      "泊": 2404,
      "泌": 2405,
      "泓": 2406,
      "法": 2407,
      "波": 2408,
      "泥": 2409,
      "注": 2410,
      "泰": 2411,
      "泳": 2412,
      "洋": 2413,
      "洑": 2414,
      "洗": 2415,
      "洙": 2416,
      "洛": 2417,
      "洞": 2418,
      "津": 2419,
      "洪": 2420,
      "洲": 2421,
      "洸": 2422,
      "活": 2423,
      "派": 2424,
      "流": 2425,
      "济": 2426,
      "浚": 2427,
      "浜": 2428,
      "浣": 2429,
      "浦": 2430,
      "浩": 2431,
      "浪": 2432,
      "浮": 2433,
      "浴": 2434,
      "海": 2435,
      "消": 2436,
      "涉": 2437,
      "涌": 2438,
      "涛": 2439,
      "液": 2440,
      "涵": 2441,
      "淋": 2442,
      "淑": 2443,
      "淚": 2444,
      "淡": 2445,
      "淤": 2446,
      "淥": 2447,
      "淨": 2448,
      "淫": 2449,
      "深": 2450,
      "淳": 2451,
      "淵": 2452,
      "混": 2453,
      "淸": 2454,
      "淹": 2455,
      "淺": 2456,
      "添": 2457,
      "清": 2458,
      "済": 2459,
      "渚": 2460,
      "減": 2461,
      "渠": 2462,
      "渡": 2463,
      "渤": 2464,
      "温": 2465,
      "測": 2466,
      "港": 2467,
      "渴": 2468,
      "湖": 2469,
      "湜": 2470,
      "湧": 2471,
      "湯": 2472,
      "湾": 2473,
      "源": 2474,
      "準": 2475,
      "溝": 2476,
      "溟": 2477,
      "溢": 2478,
      "溪": 2479,
      "溫": 2480,
      "溯": 2481,
      "溶": 2482,
      "溺": 2483,
      "滄": 2484,
      "滅": 2485,
      "滞": 2486,
      "滨": 2487,
      "滯": 2488,
      "滴": 2489,
      "滿": 2490,
      "漁": 2491,
      "漂": 2492,
      "漆": 2493,
      "漏": 2494,
      "演": 2495,
      "漡": 2496,
      "漢": 2497,
      "漲": 2498,
      "漸": 2499,
      "潔": 2500,
      "潛": 2501,
      "潜": 2502,
      "潟": 2503,
      "潤": 2504,
      "潮": 2505,
      "澁": 2506,
      "澄": 2507,
      "澈": 2508,
      "澗": 2509,
      "澤": 2510,
      "澱": 2511,
      "澳": 2512,
      "澹": 2513,
      "激": 2514,
      "濊": 2515,
      "濕": 2516,
      "濟": 2517,
      "濠": 2518,
      "濫": 2519,
      "濬": 2520,
      "濯": 2521,
      "瀆": 2522,
      "灘": 2523,
      "灣": 2524,
      "火": 2525,
      "灸": 2526,
      "災": 2527,
      "炅": 2528,
      "炙": 2529,
      "炤": 2530,
      "炫": 2531,
      "炭": 2532,
      "炯": 2533,
      "炳": 2534,
      "点": 2535,
      "為": 2536,
      "烈": 2537,
      "烏": 2538,
      "烤": 2539,
      "烹": 2540,
      "焉": 2541,
      "焙": 2542,
      "焚": 2543,
      "無": 2544,
      "焦": 2545,
      "然": 2546,
      "煉": 2547,
      "煙": 2548,
      "煞": 2549,
      "照": 2550,
      "煽": 2551,
      "熊": 2552,
      "熙": 2553,
      "熟": 2554,
      "熱": 2555,
      "燃": 2556,
      "燈": 2557,
      "燒": 2558,
      "燕": 2559,
      "營": 2560,
      "燦": 2561,
      "燭": 2562,
      "燮": 2563,
      "燾": 2564,
      "爆": 2565,
      "爐": 2566,
      "爭": 2567,
      "爲": 2568,
      "爵": 2569,
      "父": 2570,
      "爺": 2571,
      "爻": 2572,
      "爾": 2573,
      "片": 2574,
      "版": 2575,
      "牋": 2576,
      "牙": 2577,
      "牛": 2578,
      "牟": 2579,
      "牡": 2580,
      "牢": 2581,
      "牧": 2582,
      "物": 2583,
      "牲": 2584,
      "特": 2585,
      "牽": 2586,
      "犠": 2587,
      "犧": 2588,
      "犬": 2589,
      "犯": 2590,
      "状": 2591,
      "狀": 2592,
      "狂": 2593,
      "狄": 2594,
      "狗": 2595,
      "狡": 2596,
      "独": 2597,
      "猛": 2598,
      "猫": 2599,
      "献": 2600,
      "猶": 2601,
      "猾": 2602,
      "獄": 2603,
      "獨": 2604,
      "獲": 2605,
      "獸": 2606,
      "獺": 2607,
      "獻": 2608,
      "玄": 2609,
      "率": 2610,
      "玉": 2611,
      "王": 2612,
      "玟": 2613,
      "玭": 2614,
      "现": 2615,
      "玲": 2616,
      "玻": 2617,
      "珉": 2618,
      "珍": 2619,
      "珠": 2620,
      "班": 2621,
      "現": 2622,
      "球": 2623,
      "理": 2624,
      "琉": 2625,
      "琢": 2626,
      "琫": 2627,
      "琮": 2628,
      "琴": 2629,
      "瑕": 2630,
      "瑚": 2631,
      "瑛": 2632,
      "瑞": 2633,
      "瑤": 2634,
      "瑥": 2635,
      "璘": 2636,
      "璧": 2637,
      "環": 2638,
      "璽": 2639,
      "璿": 2640,
      "瓈": 2641,
      "瓘": 2642,
      "瓚": 2643,
      "瓜": 2644,
      "瓦": 2645,
      "甖": 2646,
      "甘": 2647,
      "甚": 2648,
      "生": 2649,
      "産": 2650,
      "甥": 2651,
      "用": 2652,
      "田": 2653,
      "由": 2654,
      "甲": 2655,
      "申": 2656,
      "电": 2657,
      "男": 2658,
      "甸": 2659,
      "町": 2660,
      "画": 2661,
      "界": 2662,
      "畎": 2663,
      "畏": 2664,
      "畓": 2665,
      "留": 2666,
      "畜": 2667,
      "畝": 2668,
      "略": 2669,
      "番": 2670,
      "異": 2671,
      "當": 2672,
      "畸": 2673,
      "疆": 2674,
      "疇": 2675,
      "疎": 2676,
      "疏": 2677,
      "疑": 2678,
      "疗": 2679,
      "疵": 2680,
      "疾": 2681,
      "病": 2682,
      "症": 2683,
      "痍": 2684,
      "痕": 2685,
      "痛": 2686,
      "痲": 2687,
      "痴": 2688,
      "痹": 2689,
      "瘡": 2690,
      "療": 2691,
      "癌": 2692,
      "癒": 2693,
      "癖": 2694,
      "癡": 2695,
      "癸": 2696,
      "発": 2697,
      "登": 2698,
      "發": 2699,
      "白": 2700,
      "百": 2701,
      "的": 2702,
      "皆": 2703,
      "皇": 2704,
      "皓": 2705,
      "皮": 2706,
      "盈": 2707,
      "益": 2708,
      "盖": 2709,
      "盛": 2710,
      "盜": 2711,
      "盟": 2712,
      "盡": 2713,
      "監": 2714,
      "盤": 2715,
      "盧": 2716,
      "目": 2717,
      "盲": 2718,
      "直": 2719,
      "相": 2720,
      "盾": 2721,
      "省": 2722,
      "眄": 2723,
      "看": 2724,
      "県": 2725,
      "眞": 2726,
      "真": 2727,
      "眩": 2728,
      "眸": 2729,
      "眼": 2730,
      "眾": 2731,
      "着": 2732,
      "督": 2733,
      "睦": 2734,
      "睿": 2735,
      "瞍": 2736,
      "瞒": 2737,
      "瞞": 2738,
      "瞬": 2739,
      "矇": 2740,
      "矓": 2741,
      "矛": 2742,
      "矣": 2743,
      "知": 2744,
      "短": 2745,
      "矯": 2746,
      "石": 2747,
      "码": 2748,
      "砂": 2749,
      "研": 2750,
      "砲": 2751,
      "破": 2752,
      "础": 2753,
      "硏": 2754,
      "硕": 2755,
      "硬": 2756,
      "确": 2757,
      "碇": 2758,
      "碍": 2759,
      "碎": 2760,
      "碑": 2761,
      "碧": 2762,
      "碩": 2763,
      "確": 2764,
      "碼": 2765,
      "碾": 2766,
      "磁": 2767,
      "磋": 2768,
      "磨": 2769,
      "礁": 2770,
      "礎": 2771,
      "礙": 2772,
      "示": 2773,
      "社": 2774,
      "祈": 2775,
      "祉": 2776,
      "祐": 2777,
      "祕": 2778,
      "祖": 2779,
      "祚": 2780,
      "祝": 2781,
      "神": 2782,
      "票": 2783,
      "祭": 2784,
      "祿": 2785,
      "禁": 2786,
      "禍": 2787,
      "福": 2788,
      "禛": 2789,
      "禧": 2790,
      "禪": 2791,
      "禮": 2792,
      "禱": 2793,
      "秀": 2794,
      "私": 2795,
      "秉": 2796,
      "秋": 2797,
      "种": 2798,
      "科": 2799,
      "秕": 2800,
      "秘": 2801,
      "租": 2802,
      "秦": 2803,
      "秩": 2804,
      "积": 2805,
      "称": 2806,
      "移": 2807,
      "稀": 2808,
      "稅": 2809,
      "程": 2810,
      "税": 2811,
      "稚": 2812,
      "種": 2813,
      "稱": 2814,
      "稷": 2815,
      "稽": 2816,
      "稿": 2817,
      "穀": 2818,
      "穆": 2819,
      "積": 2820,
      "究": 2821,
      "空": 2822,
      "穿": 2823,
      "突": 2824,
      "窒": 2825,
      "窓": 2826,
      "窟": 2827,
      "窦": 2828,
      "窮": 2829,
      "竊": 2830,
      "立": 2831,
      "站": 2832,
      "竝": 2833,
      "竟": 2834,
      "章": 2835,
      "童": 2836,
      "端": 2837,
      "競": 2838,
      "竹": 2839,
      "竿": 2840,
      "笑": 2841,
      "笔": 2842,
      "笙": 2843,
      "笠": 2844,
      "符": 2845,
      "第": 2846,
      "笭": 2847,
      "笱": 2848,
      "筆": 2849,
      "等": 2850,
      "筋": 2851,
      "筍": 2852,
      "筏": 2853,
      "答": 2854,
      "策": 2855,
      "筵": 2856,
      "简": 2857,
      "箕": 2858,
      "算": 2859,
      "管": 2860,
      "箱": 2861,
      "節": 2862,
      "範": 2863,
      "篇": 2864,
      "築": 2865,
      "篤": 2866,
      "簡": 2867,
      "簽": 2868,
      "簿": 2869,
      "籍": 2870,
      "米": 2871,
      "类": 2872,
      "粉": 2873,
      "粕": 2874,
      "粟": 2875,
      "粥": 2876,
      "精": 2877,
      "糞": 2878,
      "系": 2879,
      "紀": 2880,
      "約": 2881,
      "紅": 2882,
      "紋": 2883,
      "納": 2884,
      "純": 2885,
      "紙": 2886,
      "級": 2887,
      "素": 2888,
      "索": 2889,
      "紫": 2890,
      "累": 2891,
      "細": 2892,
      "紹": 2893,
      "終": 2894,
      "組": 2895,
      "経": 2896,
      "結": 2897,
      "絡": 2898,
      "給": 2899,
      "統": 2900,
      "絲": 2901,
      "絶": 2902,
      "經": 2903,
      "続": 2904,
      "綠": 2905,
      "維": 2906,
      "綱": 2907,
      "網": 2908,
      "綸": 2909,
      "綻": 2910,
      "綿": 2911,
      "緊": 2912,
      "緖": 2913,
      "線": 2914,
      "緡": 2915,
      "緣": 2916,
      "編": 2917,
      "緩": 2918,
      "緬": 2919,
      "練": 2920,
      "縛": 2921,
      "縣": 2922,
      "縫": 2923,
      "縮": 2924,
      "總": 2925,
      "績": 2926,
      "織": 2927,
      "繡": 2928,
      "繫": 2929,
      "繼": 2930,
      "纂": 2931,
      "續": 2932,
      "纓": 2933,
      "纔": 2934,
      "纛": 2935,
      "约": 2936,
      "纳": 2937,
      "组": 2938,
      "织": 2939,
      "经": 2940,
      "结": 2941,
      "给": 2942,
      "络": 2943,
      "绝": 2944,
      "统": 2945,
      "维": 2946,
      "绿": 2947,
      "缴": 2948,
      "缺": 2949,
      "缾": 2950,
      "罄": 2951,
      "罔": 2952,
      "罪": 2953,
      "置": 2954,
      "罰": 2955,
      "署": 2956,
      "罵": 2957,
      "罷": 2958,
      "羅": 2959,
      "羈": 2960,
      "羊": 2961,
      "美": 2962,
      "羞": 2963,
      "群": 2964,
      "義": 2965,
      "羲": 2966,
      "羽": 2967,
      "翁": 2968,
      "翊": 2969,
      "習": 2970,
      "翕": 2971,
      "翰": 2972,
      "翼": 2973,
      "耀": 2974,
      "老": 2975,
      "考": 2976,
      "者": 2977,
      "耆": 2978,
      "而": 2979,
      "耐": 2980,
      "耕": 2981,
      "耳": 2982,
      "耽": 2983,
      "联": 2984,
      "聖": 2985,
      "聘": 2986,
      "聚": 2987,
      "聞": 2988,
      "聯": 2989,
      "聲": 2990,
      "聳": 2991,
      "職": 2992,
      "聽": 2993,
      "肅": 2994,
      "肉": 2995,
      "肖": 2996,
      "肢": 2997,
      "肥": 2998,
      "肪": 2999,
      "肯": 3000,
      "育": 3001,
      "肴": 3002,
      "肺": 3003,
      "胃": 3004,
      "背": 3005,
      "胎": 3006,
      "胞": 3007,
      "胡": 3008,
      "胤": 3009,
      "能": 3010,
      "脂": 3011,
      "脅": 3012,
      "脈": 3013,
      "脊": 3014,
      "脚": 3015,
      "脣": 3016,
      "脫": 3017,
      "脱": 3018,
      "腐": 3019,
      "腕": 3020,
      "腦": 3021,
      "腫": 3022,
      "腹": 3023,
      "膏": 3024,
      "膚": 3025,
      "膠": 3026,
      "膽": 3027,
      "膾": 3028,
      "臟": 3029,
      "臣": 3030,
      "臥": 3031,
      "臨": 3032,
      "自": 3033,
      "至": 3034,
      "致": 3035,
      "臺": 3036,
      "舅": 3037,
      "與": 3038,
      "興": 3039,
      "舉": 3040,
      "舊": 3041,
      "舌": 3042,
      "舍": 3043,
      "舒": 3044,
      "舜": 3045,
      "舞": 3046,
      "舟": 3047,
      "航": 3048,
      "般": 3049,
      "舶": 3050,
      "船": 3051,
      "艦": 3052,
      "良": 3053,
      "色": 3054,
      "芥": 3055,
      "花": 3056,
      "芳": 3057,
      "苑": 3058,
      "苗": 3059,
      "苛": 3060,
      "苟": 3061,
      "若": 3062,
      "苦": 3063,
      "英": 3064,
      "茂": 3065,
      "范": 3066,
      "茜": 3067,
      "茶": 3068,
      "荀": 3069,
      "草": 3070,
      "荊": 3071,
      "荒": 3072,
      "荣": 3073,
      "荷": 3074,
      "莞": 3075,
      "莫": 3076,
      "菊": 3077,
      "菟": 3078,
      "華": 3079,
      "菱": 3080,
      "菲": 3081,
      "菴": 3082,
      "萊": 3083,
      "营": 3084,
      "萬": 3085,
      "落": 3086,
      "葉": 3087,
      "著": 3088,
      "葛": 3089,
      "葬": 3090,
      "蒙": 3091,
      "蒼": 3092,
      "蓄": 3093,
      "蓋": 3094,
      "蓬": 3095,
      "蓮": 3096,
      "蔑": 3097,
      "蔓": 3098,
      "蔘": 3099,
      "蔚": 3100,
      "蔡": 3101,
      "蔭": 3102,
      "蔽": 3103,
      "蕪": 3104,
      "蕭": 3105,
      "薄": 3106,
      "薇": 3107,
      "薛": 3108,
      "薦": 3109,
      "薩": 3110,
      "薪": 3111,
      "薰": 3112,
      "藍": 3113,
      "藏": 3114,
      "藝": 3115,
      "藤": 3116,
      "藥": 3117,
      "藩": 3118,
      "藻": 3119,
      "蘇": 3120,
      "蘋": 3121,
      "蘭": 3122,
      "蘿": 3123,
      "虎": 3124,
      "虐": 3125,
      "虔": 3126,
      "處": 3127,
      "虛": 3128,
      "虜": 3129,
      "號": 3130,
      "虹": 3131,
      "虽": 3132,
      "蛇": 3133,
      "蛙": 3134,
      "蝨": 3135,
      "蝶": 3136,
      "螂": 3137,
      "螳": 3138,
      "蟲": 3139,
      "蠅": 3140,
      "蠢": 3141,
      "蠶": 3142,
      "蠻": 3143,
      "血": 3144,
      "衆": 3145,
      "行": 3146,
      "衍": 3147,
      "術": 3148,
      "衙": 3149,
      "衛": 3150,
      "衝": 3151,
      "衡": 3152,
      "衣": 3153,
      "补": 3154,
      "表": 3155,
      "衫": 3156,
      "衰": 3157,
      "袋": 3158,
      "袖": 3159,
      "被": 3160,
      "裁": 3161,
      "裂": 3162,
      "装": 3163,
      "裏": 3164,
      "裔": 3165,
      "裕": 3166,
      "補": 3167,
      "裝": 3168,
      "裵": 3169,
      "裸": 3170,
      "製": 3171,
      "複": 3172,
      "褐": 3173,
      "褒": 3174,
      "褙": 3175,
      "褻": 3176,
      "襟": 3177,
      "襤": 3178,
      "襲": 3179,
      "襾": 3180,
      "西": 3181,
      "要": 3182,
      "覆": 3183,
      "覇": 3184,
      "見": 3185,
      "規": 3186,
      "視": 3187,
      "親": 3188,
      "覺": 3189,
      "覽": 3190,
      "觀": 3191,
      "见": 3192,
      "规": 3193,
      "视": 3194,
      "觉": 3195,
      "角": 3196,
      "解": 3197,
      "触": 3198,
      "觴": 3199,
      "觸": 3200,
      "言": 3201,
      "訂": 3202,
      "計": 3203,
      "訊": 3204,
      "討": 3205,
      "訓": 3206,
      "託": 3207,
      "記": 3208,
      "訟": 3209,
      "訣": 3210,
      "訪": 3211,
      "設": 3212,
      "許": 3213,
      "訴": 3214,
      "診": 3215,
      "註": 3216,
      "詐": 3217,
      "評": 3218,
      "詞": 3219,
      "試": 3220,
      "詩": 3221,
      "詬": 3222,
      "詭": 3223,
      "話": 3224,
      "該": 3225,
      "詳": 3226,
      "誅": 3227,
      "誌": 3228,
      "認": 3229,
      "誓": 3230,
      "誕": 3231,
      "誘": 3232,
      "語": 3233,
      "誠": 3234,
      "誣": 3235,
      "誤": 3236,
      "說": 3237,
      "説": 3238,
      "読": 3239,
      "誰": 3240,
      "課": 3241,
      "誼": 3242,
      "調": 3243,
      "諆": 3244,
      "談": 3245,
      "請": 3246,
      "論": 3247,
      "諱": 3248,
      "諸": 3249,
      "諺": 3250,
      "謀": 3251,
      "謁": 3252,
      "謂": 3253,
      "謄": 3254,
      "謙": 3255,
      "講": 3256,
      "謝": 3257,
      "謠": 3258,
      "謨": 3259,
      "謬": 3260,
      "謹": 3261,
      "證": 3262,
      "識": 3263,
      "譜": 3264,
      "警": 3265,
      "譯": 3266,
      "議": 3267,
      "護": 3268,
      "譽": 3269,
      "讀": 3270,
      "變": 3271,
      "讎": 3272,
      "讐": 3273,
      "讒": 3274,
      "讓": 3275,
      "讚": 3276,
      "认": 3277,
      "讨": 3278,
      "让": 3279,
      "议": 3280,
      "记": 3281,
      "许": 3282,
      "讹": 3283,
      "论": 3284,
      "设": 3285,
      "识": 3286,
      "诉": 3287,
      "试": 3288,
      "诚": 3289,
      "话": 3290,
      "该": 3291,
      "语": 3292,
      "说": 3293,
      "请": 3294,
      "调": 3295,
      "谷": 3296,
      "豁": 3297,
      "豈": 3298,
      "豊": 3299,
      "豕": 3300,
      "豚": 3301,
      "象": 3302,
      "豪": 3303,
      "豫": 3304,
      "貊": 3305,
      "貌": 3306,
      "貝": 3307,
      "貞": 3308,
      "負": 3309,
      "財": 3310,
      "貢": 3311,
      "貧": 3312,
      "貨": 3313,
      "販": 3314,
      "貪": 3315,
      "貫": 3316,
      "責": 3317,
      "貯": 3318,
      "貰": 3319,
      "貴": 3320,
      "貶": 3321,
      "買": 3322,
      "貸": 3323,
      "費": 3324,
      "賀": 3325,
      "賃": 3326,
      "資": 3327,
      "賈": 3328,
      "賊": 3329,
      "賓": 3330,
      "賛": 3331,
      "賜": 3332,
      "賞": 3333,
      "賠": 3334,
      "賢": 3335,
      "賣": 3336,
      "賦": 3337,
      "質": 3338,
      "賭": 3339,
      "賴": 3340,
      "贈": 3341,
      "贊": 3342,
      "贡": 3343,
      "财": 3344,
      "贴": 3345,
      "费": 3346,
      "贼": 3347,
      "资": 3348,
      "赚": 3349,
      "赤": 3350,
      "赫": 3351,
      "走": 3352,
      "赵": 3353,
      "起": 3354,
      "超": 3355,
      "越": 3356,
      "趙": 3357,
      "趣": 3358,
      "足": 3359,
      "趾": 3360,
      "跆": 3361,
      "跋": 3362,
      "跡": 3363,
      "路": 3364,
      "跳": 3365,
      "踊": 3366,
      "踏": 3367,
      "踐": 3368,
      "踪": 3369,
      "蹂": 3370,
      "蹄": 3371,
      "蹟": 3372,
      "躍": 3373,
      "躪": 3374,
      "身": 3375,
      "車": 3376,
      "軋": 3377,
      "軌": 3378,
      "軍": 3379,
      "軟": 3380,
      "転": 3381,
      "軸": 3382,
      "載": 3383,
      "輔": 3384,
      "輕": 3385,
      "輛": 3386,
      "輝": 3387,
      "輩": 3388,
      "輪": 3389,
      "輸": 3390,
      "輿": 3391,
      "轄": 3392,
      "轉": 3393,
      "轍": 3394,
      "轟": 3395,
      "轡": 3396,
      "车": 3397,
      "轮": 3398,
      "较": 3399,
      "辆": 3400,
      "辈": 3401,
      "辛": 3402,
      "辜": 3403,
      "辞": 3404,
      "辦": 3405,
      "辨": 3406,
      "辭": 3407,
      "辯": 3408,
      "辰": 3409,
      "辱": 3410,
      "農": 3411,
      "込": 3412,
      "达": 3413,
      "过": 3414,
      "迎": 3415,
      "近": 3416,
      "返": 3417,
      "还": 3418,
      "这": 3419,
      "进": 3420,
      "远": 3421,
      "违": 3422,
      "连": 3423,
      "迫": 3424,
      "述": 3425,
      "迹": 3426,
      "追": 3427,
      "退": 3428,
      "送": 3429,
      "适": 3430,
      "逃": 3431,
      "逆": 3432,
      "选": 3433,
      "逋": 3434,
      "透": 3435,
      "逐": 3436,
      "途": 3437,
      "通": 3438,
      "逞": 3439,
      "速": 3440,
      "造": 3441,
      "逢": 3442,
      "連": 3443,
      "週": 3444,
      "進": 3445,
      "逸": 3446,
      "遁": 3447,
      "遂": 3448,
      "遇": 3449,
      "遊": 3450,
      "運": 3451,
      "遍": 3452,
      "過": 3453,
      "道": 3454,
      "達": 3455,
      "違": 3456,
      "遜": 3457,
      "遠": 3458,
      "遡": 3459,
      "遣": 3460,
      "適": 3461,
      "遮": 3462,
      "遲": 3463,
      "遵": 3464,
      "遷": 3465,
      "選": 3466,
      "遺": 3467,
      "遼": 3468,
      "避": 3469,
      "邁": 3470,
      "還": 3471,
      "邊": 3472,
      "邑": 3473,
      "那": 3474,
      "邦": 3475,
      "邪": 3476,
      "邯": 3477,
      "邱": 3478,
      "邵": 3479,
      "郊": 3480,
      "郞": 3481,
      "郡": 3482,
      "部": 3483,
      "郭": 3484,
      "郵": 3485,
      "都": 3486,
      "鄕": 3487,
      "鄙": 3488,
      "鄧": 3489,
      "鄭": 3490,
      "鄰": 3491,
      "鄲": 3492,
      "酉": 3493,
      "酌": 3494,
      "配": 3495,
      "酒": 3496,
      "酬": 3497,
      "酵": 3498,
      "酷": 3499,
      "酸": 3500,
      "醇": 3501,
      "醉": 3502,
      "醒": 3503,
      "醜": 3504,
      "醫": 3505,
      "釋": 3506,
      "里": 3507,
      "重": 3508,
      "野": 3509,
      "量": 3510,
      "金": 3511,
      "釘": 3512,
      "釜": 3513,
      "針": 3514,
      "釣": 3515,
      "鈴": 3516,
      "鉄": 3517,
      "鉉": 3518,
      "鉴": 3519,
      "銀": 3520,
      "銃": 3521,
      "銅": 3522,
      "銖": 3523,
      "銘": 3524,
      "鋈": 3525,
      "鋌": 3526,
      "錄": 3527,
      "錐": 3528,
      "錢": 3529,
      "錦": 3530,
      "錫": 3531,
      "錮": 3532,
      "錯": 3533,
      "鍊": 3534,
      "鍼": 3535,
      "鍾": 3536,
      "鎔": 3537,
      "鎖": 3538,
      "鎬": 3539,
      "鎭": 3540,
      "鏞": 3541,
      "鏡": 3542,
      "鐘": 3543,
      "鐵": 3544,
      "鑄": 3545,
      "鑑": 3546,
      "鑽": 3547,
      "铁": 3548,
      "锋": 3549,
      "错": 3550,
      "锯": 3551,
      "長": 3552,
      "长": 3553,
      "門": 3554,
      "閃": 3555,
      "開": 3556,
      "閏": 3557,
      "閑": 3558,
      "間": 3559,
      "閔": 3560,
      "関": 3561,
      "閣": 3562,
      "閥": 3563,
      "閱": 3564,
      "闊": 3565,
      "闕": 3566,
      "關": 3567,
      "闡": 3568,
      "闢": 3569,
      "门": 3570,
      "问": 3571,
      "间": 3572,
      "闻": 3573,
      "阜": 3574,
      "阪": 3575,
      "阮": 3576,
      "防": 3577,
      "阳": 3578,
      "阼": 3579,
      "阿": 3580,
      "附": 3581,
      "际": 3582,
      "陆": 3583,
      "陋": 3584,
      "降": 3585,
      "限": 3586,
      "陛": 3587,
      "陝": 3588,
      "陞": 3589,
      "院": 3590,
      "除": 3591,
      "险": 3592,
      "陪": 3593,
      "陰": 3594,
      "陳": 3595,
      "陵": 3596,
      "陶": 3597,
      "陸": 3598,
      "陽": 3599,
      "隆": 3600,
      "隊": 3601,
      "階": 3602,
      "隐": 3603,
      "隔": 3604,
      "隙": 3605,
      "際": 3606,
      "障": 3607,
      "隣": 3608,
      "隨": 3609,
      "險": 3610,
      "隱": 3611,
      "隷": 3612,
      "隸": 3613,
      "难": 3614,
      "雀": 3615,
      "雄": 3616,
      "集": 3617,
      "雇": 3618,
      "雑": 3619,
      "雙": 3620,
      "雜": 3621,
      "離": 3622,
      "難": 3623,
      "雨": 3624,
      "雪": 3625,
      "雰": 3626,
      "雲": 3627,
      "雷": 3628,
      "雹": 3629,
      "電": 3630,
      "需": 3631,
      "震": 3632,
      "霓": 3633,
      "霜": 3634,
      "露": 3635,
      "霸": 3636,
      "霹": 3637,
      "霽": 3638,
      "靂": 3639,
      "靈": 3640,
      "靑": 3641,
      "青": 3642,
      "靖": 3643,
      "靜": 3644,
      "非": 3645,
      "面": 3646,
      "革": 3647,
      "靺": 3648,
      "鞠": 3649,
      "鞨": 3650,
      "鞭": 3651,
      "韓": 3652,
      "韩": 3653,
      "音": 3654,
      "韶": 3655,
      "韻": 3656,
      "頁": 3657,
      "頂": 3658,
      "項": 3659,
      "順": 3660,
      "須": 3661,
      "頒": 3662,
      "頗": 3663,
      "領": 3664,
      "頭": 3665,
      "頸": 3666,
      "題": 3667,
      "額": 3668,
      "顔": 3669,
      "願": 3670,
      "顚": 3671,
      "類": 3672,
      "顧": 3673,
      "顯": 3674,
      "项": 3675,
      "颁": 3676,
      "预": 3677,
      "领": 3678,
      "颉": 3679,
      "题": 3680,
      "额": 3681,
      "風": 3682,
      "颱": 3683,
      "飄": 3684,
      "风": 3685,
      "飛": 3686,
      "飜": 3687,
      "飞": 3688,
      "食": 3689,
      "飡": 3690,
      "飢": 3691,
      "飮": 3692,
      "飯": 3693,
      "飼": 3694,
      "飾": 3695,
      "餃": 3696,
      "養": 3697,
      "餓": 3698,
      "餘": 3699,
      "館": 3700,
      "饗": 3701,
      "馆": 3702,
      "首": 3703,
      "香": 3704,
      "馬": 3705,
      "駁": 3706,
      "駅": 3707,
      "駐": 3708,
      "駕": 3709,
      "駭": 3710,
      "騎": 3711,
      "騰": 3712,
      "騷": 3713,
      "驕": 3714,
      "驗": 3715,
      "驚": 3716,
      "驛": 3717,
      "驥": 3718,
      "驪": 3719,
      "马": 3720,
      "驻": 3721,
      "驾": 3722,
      "骨": 3723,
      "骸": 3724,
      "髏": 3725,
      "髑": 3726,
      "體": 3727,
      "高": 3728,
      "髮": 3729,
      "鬪": 3730,
      "鬱": 3731,
      "鬲": 3732,
      "鬼": 3733,
      "魁": 3734,
      "魂": 3735,
      "魄": 3736,
      "魏": 3737,
      "魔": 3738,
      "魚": 3739,
      "魯": 3740,
      "鮮": 3741,
      "鱗": 3742,
      "鳥": 3743,
      "鳩": 3744,
      "鳳": 3745,
      "鳴": 3746,
      "鴟": 3747,
      "鴨": 3748,
      "鴻": 3749,
      "鵠": 3750,
      "鶴": 3751,
      "鷗": 3752,
      "鷺": 3753,
      "鸭": 3754,
      "鹽": 3755,
      "鹿": 3756,
      "麗": 3757,
      "麤": 3758,
      "麥": 3759,
      "麻": 3760,
      "黃": 3761,
      "黄": 3762,
      "黊": 3763,
      "黑": 3764,
      "默": 3765,
      "黙": 3766,
      "點": 3767,
      "黨": 3768,
      "鼎": 3769,
      "鼓": 3770,
      "鼠": 3771,
      "鼡": 3772,
      "鼻": 3773,
      "齊": 3774,
      "齋": 3775,
      "齒": 3776,
      "齡": 3777,
      "龄": 3778,
      "龍": 3779,
      "龐": 3780,
      "龙": 3781,
      "龜": 3782,
      "龟": 3783,
      "꙼": 3784,
      "ힹ": 3785,
      "퟇": 3786,
      "": 3787,
      "": 3788,
      "": 3789,
      "": 3790,
      "": 3791,
      "": 3792,
      "": 3793,
      "": 3794,
      "": 3795,
      "": 3796,
      "": 3797,
      "": 3798,
      "": 3799,
      "": 3800,
      "": 3801,
      "": 3802,
      "": 3803,
      "": 3804,
      "": 3805,
      "": 3806,
      "": 3807,
      "": 3808,
      "": 3809,
      "": 3810,
      "": 3811,
      "": 3812,
      "": 3813,
      "": 3814,
      "": 3815,
      "": 3816,
      "": 3817,
      "": 3818,
      "": 3819,
      "": 3820,
      "": 3821,
      "": 3822,
      "": 3823,
      "": 3824,
      "": 3825,
      "": 3826,
      "": 3827,
      "": 3828,
      "": 3829,
      "": 3830,
      "": 3831,
      "": 3832,
      "": 3833,
      "": 3834,
      "": 3835,
      "": 3836,
      "": 3837,
      "": 3838,
      "": 3839,
      "": 3840,
      "": 3841,
      "": 3842,
      "": 3843,
      "": 3844,
      "": 3845,
      "": 3846,
      "": 3847,
      "": 3848,
      "": 3849,
      "": 3850,
      "": 3851,
      "": 3852,
      "": 3853,
      "": 3854,
      "": 3855,
      "": 3856,
      "": 3857,
      "": 3858,
      "": 3859,
      "": 3860,
      "": 3861,
      "": 3862,
      "": 3863,
      "": 3864,
      "": 3865,
      "": 3866,
      "": 3867,
      "": 3868,
      "︎": 3869,
      "️": 3870,
      "︙": 3871,
      "﹡": 3872,
      "ﻬ": 3873,
      "﻿": 3874,
      "！": 3875,
      "＂": 3876,
      "＃": 3877,
      "％": 3878,
      "＆": 3879,
      "＇": 3880,
      "（": 3881,
      "）": 3882,
      "＊": 3883,
      "＋": 3884,
      "，": 3885,
      "－": 3886,
      "．": 3887,
      "／": 3888,
      "０": 3889,
      "１": 3890,
      "２": 3891,
      "３": 3892,
      "４": 3893,
      "５": 3894,
      "６": 3895,
      "７": 3896,
      "８": 3897,
      "９": 3898,
      "：": 3899,
      "；": 3900,
      "＜": 3901,
      "＝": 3902,
      "＞": 3903,
      "？": 3904,
      "＠": 3905,
      "［": 3906,
      "＼": 3907,
      "］": 3908,
      "＾": 3909,
      "ａ": 3910,
      "ｂ": 3911,
      "ｃ": 3912,
      "ｄ": 3913,
      "ｅ": 3914,
      "ｉ": 3915,
      "ｋ": 3916,
      "ｌ": 3917,
      "ｍ": 3918,
      "ｎ": 3919,
      "ｏ": 3920,
      "ｐ": 3921,
      "ｒ": 3922,
      "ｓ": 3923,
      "ｔ": 3924,
      "ｖ": 3925,
      "ｘ": 3926,
      "｛": 3927,
      "｝": 3928,
      "～": 3929,
      "｡": 3930,
      "｢": 3931,
      "｣": 3932,
      "､": 3933,
      "･": 3934,
      "ﾉ": 3935,
      "￥": 3936,
      "￦": 3937,
      "￫": 3938,
      "￭": 3939,
      "￮": 3940,
      "￼": 3941,
      "�": 3942,
      "𐄁": 3943,
      "𐄢": 3944,
      "𓅿": 3945,
      "𔃱": 3946,
      "𖤐": 3947,
      "🆗": 3948,
      "🇨": 3949,
      "🇰": 3950,
      "🇱": 3951,
      "🇵": 3952,
      "🇷": 3953,
      "🌃": 3954,
      "🌄": 3955,
      "🌋": 3956,
      "🌌": 3957,
      "🌎": 3958,
      "🌏": 3959,
      "🌜": 3960,
      "🌞": 3961,
      "🌟": 3962,
      "🌨": 3963,
      "🌫": 3964,
      "🌱": 3965,
      "🌲": 3966,
      "🌳": 3967,
      "🌶": 3968,
      "🌷": 3969,
      "🌸": 3970,
      "🌹": 3971,
      "🌻": 3972,
      "🍀": 3973,
      "🍁": 3974,
      "🍊": 3975,
      "🍌": 3976,
      "🍍": 3977,
      "🍒": 3978,
      "🍕": 3979,
      "🍠": 3980,
      "🎅": 3981,
      "🎈": 3982,
      "🎉": 3983,
      "🎊": 3984,
      "🎎": 3985,
      "🎑": 3986,
      "🎗": 3987,
      "🎵": 3988,
      "🎶": 3989,
      "🎾": 3990,
      "🏁": 3991,
      "🏓": 3992,
      "🏗": 3993,
      "🏥": 3994,
      "🏨": 3995,
      "🏻": 3996,
      "🏼": 3997,
      "🏽": 3998,
      "🏿": 3999,
      "🐅": 4000,
      "🐈": 4001,
      "🐍": 4002,
      "🐒": 4003,
      "🐔": 4004,
      "🐕": 4005,
      "🐖": 4006,
      "🐙": 4007,
      "🐜": 4008,
      "🐭": 4009,
      "🐱": 4010,
      "🐲": 4011,
      "🐳": 4012,
      "🐴": 4013,
      "🐶": 4014,
      "🐷": 4015,
      "🐽": 4016,
      "👀": 4017,
      "👁": 4018,
      "👂": 4019,
      "👆": 4020,
      "👇": 4021,
      "👈": 4022,
      "👉": 4023,
      "👊": 4024,
      "👋": 4025,
      "👌": 4026,
      "👍": 4027,
      "👎": 4028,
      "👏": 4029,
      "👣": 4030,
      "👥": 4031,
      "👦": 4032,
      "👧": 4033,
      "👨": 4034,
      "👩": 4035,
      "👴": 4036,
      "👵": 4037,
      "👹": 4038,
      "👺": 4039,
      "👿": 4040,
      "💃": 4041,
      "💋": 4042,
      "💑": 4043,
      "💓": 4044,
      "💔": 4045,
      "💕": 4046,
      "💖": 4047,
      "💗": 4048,
      "💘": 4049,
      "💙": 4050,
      "💚": 4051,
      "💛": 4052,
      "💜": 4053,
      "💝": 4054,
      "💞": 4055,
      "💡": 4056,
      "💢": 4057,
      "💥": 4058,
      "💨": 4059,
      "💩": 4060,
      "💪": 4061,
      "💯": 4062,
      "💰": 4063,
      "💵": 4064,
      "💻": 4065,
      "📊": 4066,
      "📌": 4067,
      "📛": 4068,
      "📢": 4069,
      "📣": 4070,
      "🔁": 4071,
      "🔇": 4072,
      "🔉": 4073,
      "🔊": 4074,
      "🔔": 4075,
      "🔥": 4076,
      "🔨": 4077,
      "🔮": 4078,
      "🔴": 4079,
      "🔵": 4080,
      "🔷": 4081,
      "🔹": 4082,
      "🔺": 4083,
      "🔼": 4084,
      "🕐": 4085,
      "🕑": 4086,
      "🕒": 4087,
      "🕔": 4088,
      "🕚": 4089,
      "🕛": 4090,
      "🕦": 4091,
      "🕧": 4092,
      "🕪": 4093,
      "🕭": 4094,
      "🕯": 4095,
      "🕸": 4096,
      "🕹": 4097,
      "🕺": 4098,
      "🖕": 4099,
      "🖥": 4100,
      "🗡": 4101,
      "🗣": 4102,
      "🗺": 4103,
      "😀": 4104,
      "😁": 4105,
      "😂": 4106,
      "😃": 4107,
      "😄": 4108,
      "😅": 4109,
      "😆": 4110,
      "😇": 4111,
      "😈": 4112,
      "😉": 4113,
      "😊": 4114,
      "😋": 4115,
      "😌": 4116,
      "😍": 4117,
      "😎": 4118,
      "😏": 4119,
      "😐": 4120,
      "😑": 4121,
      "😓": 4122,
      "😕": 4123,
      "😖": 4124,
      "😗": 4125,
      "😘": 4126,
      "😙": 4127,
      "😜": 4128,
      "😞": 4129,
      "😠": 4130,
      "😡": 4131,
      "😢": 4132,
      "😣": 4133,
      "😤": 4134,
      "😥": 4135,
      "😧": 4136,
      "😨": 4137,
      "😩": 4138,
      "😫": 4139,
      "😬": 4140,
      "😭": 4141,
      "😮": 4142,
      "😯": 4143,
      "😰": 4144,
      "😱": 4145,
      "😲": 4146,
      "😳": 4147,
      "😵": 4148,
      "😷": 4149,
      "😾": 4150,
      "🙂": 4151,
      "🙄": 4152,
      "🙇": 4153,
      "🙋": 4154,
      "🙌": 4155,
      "🙏": 4156,
      "🚉": 4157,
      "🚋": 4158,
      "🚎": 4159,
      "🚒": 4160,
      "🚧": 4161,
      "🚨": 4162,
      "🚩": 4163,
      "🚫": 4164,
      "🛇": 4165,
      "🛑": 4166,
      "🛤": 4167,
      "🛩": 4168,
      "🤕": 4169,
      "🤗": 4170,
      "🤝": 4171,
      "🤣": 4172,
      "🤦": 4173,
      "🤧": 4174,
      "🤩": 4175,
      "🤬": 4176,
      "🤮": 4177,
      "🤰": 4178,
      "🤱": 4179,
      "🤸": 4180,
      "🤹": 4181,
      "🥅": 4182,
      "🥇": 4183,
      "🥈": 4184,
      "🥝": 4185,
      "🦀": 4186,
      "🧓": 4187,
      "🧚": 4188,
      "🧥": 4189,
      "𡤓": 4190,
      "𣌒": 4191,
      "𧬰": 4192,
      "󰁋": 4193,
      "󰁾": 4194,
      "󰄫": 4195,
      "󰊈": 4196,
      "󰊱": 4197,
      "󰊲": 4198,
      "󰊳": 4199,
      "󰊴": 4200,
      "󰊵": 4201,
      "󰋎": 4202,
      "󰋏": 4203,
      "󰋪": 4204,
      "󰋯": 4205,
      "󰏚": 4206,
      "󰠛": 4207,
      "󰠲": 4208,
      "󰡐": 4209,
      "󰡑": 4210,
      "󰡒": 4211,
      "󰡓": 4212,
      "󰡔": 4213,
      "󰡕": 4214,
      "􍾶": 4215,
      "##ᅥ": 4216,
      "##ᆫ": 4217,
      "##ᄇ": 4218,
      "##ᅮ": 4219,
      "##ᆨ": 4220,
      "##ᄌ": 4221,
      "##ᅵ": 4222,
      "##ᅡ": 4223,
      "##ᄀ": 4224,
      "##ᅳ": 4225,
      "##ᄉ": 4226,
      "##ᄏ": 4227,
      "##ᅧ": 4228,
      "##ᄑ": 4229,
      "##ᆷ": 4230,
      "##ᆼ": 4231,
      "##ᄆ": 4232,
      "##ᅩ": 4233,
      "##ᄃ": 4234,
      "##ᅢ": 4235,
      "##ᄅ": 4236,
      "##ᆯ": 4237,
      "##2": 4238,
      "##ᄋ": 4239,
      "##ᅪ": 4240,
      "##ᄒ": 4241,
      "##ᆻ": 4242,
      "##ᆸ": 4243,
      "##ᄂ": 4244,
      "##ᇁ": 4245,
      "##ᄁ": 4246,
      "##ᅭ": 4247,
      "##ᅣ": 4248,
      "##ᆺ": 4249,
      "##ᇀ": 4250,
      "##ᅱ": 4251,
      "##ᄐ": 4252,
      "##ᅲ": 4253,
      "##ᆮ": 4254,
      "##ᄍ": 4255,
      "##ᅨ": 4256,
      "##ᄎ": 4257,
      "##ᅦ": 4258,
      "##h": 4259,
      "##5": 4260,
      "##1": 4261,
      "##7": 4262,
      "##3": 4263,
      "##ᅴ": 4264,
      "##ᄄ": 4265,
      "##ᅬ": 4266,
      "##ᅫ": 4267,
      "##ᅯ": 4268,
      "##ᄊ": 4269,
      "##ᆭ": 4270,
      "##u": 4271,
      "##n": 4272,
      "##o": 4273,
      "##j": 4274,
      "##0": 4275,
      "##ᇂ": 4276,
      "##ᆹ": 4277,
      "##勢": 4278,
      "##9": 4279,
      "##ᆽ": 4280,
      "##ㄴ": 4281,
      "##f": 4282,
      "##c": 4283,
      "##4": 4284,
      "##ᆩ": 4285,
      "##…": 4286,
      "##.": 4287,
      "##ᆱ": 4288,
      "##e": 4289,
      "##x": 4290,
      "##ᆾ": 4291,
      "##s": 4292,
      "##i": 4293,
      "##d": 4294,
      "##a": 4295,
      "##6": 4296,
      "##b": 4297,
      "##ᄈ": 4298,
      "##器": 4299,
      "##r": 4300,
      "##v": 4301,
      "##t": 4302,
      "##ᆶ": 4303,
      "##k": 4304,
      "##ᆰ": 4305,
      "##(": 4306,
      "##y": 4307,
      "##ㅇ": 4308,
      "##8": 4309,
      "##w": 4310,
      "##ㅖ": 4311,
      "##ㆍ": 4312,
      "##ᅰ": 4313,
      "##ㅡ": 4314,
      "##ᅤ": 4315,
      "##ᆢ": 4316,
      "###": 4317,
      "##m": 4318,
      "##訴": 4319,
      "##l": 4320,
      "##z": 4321,
      "##~": 4322,
      "##\"": 4323,
      "##g": 4324,
      "##ㄷ": 4325,
      "##ㅔ": 4326,
      "##ᆲ": 4327,
      "##ㅜ": 4328,
      "##,": 4329,
      "##德": 4330,
      "##﻿": 4331,
      "##<": 4332,
      "##?": 4333,
      "##\\": 4334,
      "##ㅠ": 4335,
      "##!": 4336,
      "##”": 4337,
      "##*": 4338,
      "##/": 4339,
      "##ذ": 4340,
      "##ه": 4341,
      "##’": 4342,
      "##+": 4343,
      "##p": 4344,
      "##>": 4345,
      "##-": 4346,
      "##)": 4347,
      "##神": 4348,
      "##政": 4349,
      "##ㅋ": 4350,
      "##;": 4351,
      "##ᆞ": 4352,
      "##區": 4353,
      "##戒": 4354,
      "##嚴": 4355,
      "##司": 4356,
      "##令": 4357,
      "##部": 4358,
      "##已": 4359,
      "##厚": 4360,
      "##而": 4361,
      "##慎": 4362,
      "##不": 4363,
      "##敢": 4364,
      "##取": 4365,
      "##_": 4366,
      "##地": 4367,
      "##改": 4368,
      "##名": 4369,
      "##泰": 4370,
      "##善": 4371,
      "##ㅆ": 4372,
      "##ᆬ": 4373,
      "##̀": 4374,
      "##́": 4375,
      "##·": 4376,
      "##:": 4377,
      "##代": 4378,
      "##ㅎ": 4379,
      "##q": 4380,
      "##ㅣ": 4381,
      "##⑤": 4382,
      "##⑥": 4383,
      "##定": 4384,
      "##👉": 4385,
      "##前": 4386,
      "##端": 4387,
      "##情": 4388,
      "##論": 4389,
      "##天": 4390,
      "##武": 4391,
      "##后": 4392,
      "##老": 4393,
      "##父": 4394,
      "##曰": 4395,
      "##恆": 4396,
      "##亡": 4397,
      "##‘": 4398,
      "##↓": 4399,
      "##ᆪ": 4400,
      "##ㅁ": 4401,
      "##=": 4402,
      "##子": 4403,
      "##格": 4404,
      "##ᆿ": 4405,
      "##日": 4406,
      "##'": 4407,
      "##內": 4408,
      "##鮮": 4409,
      "##一": 4410,
      "##體": 4411,
      "##富": 4412,
      "##川": 4413,
      "##西": 4414,
      "##龍": 4415,
      "##ㄹ": 4416,
      "##薇": 4417,
      "##垣": 4418,
      "##局": 4419,
      "##杓": 4420,
      "##⇒": 4421,
      "##┐": 4422,
      "##盜": 4423,
      "##貨": 4424,
      "##」": 4425,
      "##​": 4426,
      "##꙼": 4427,
      "##̈": 4428,
      "##ㄱ": 4429,
      "##^": 4430,
      "##̉": 4431,
      "##役": 4432,
      "##民": 4433,
      "##主": 4434,
      "##權": 4435,
      "##北": 4436,
      "##可": 4437,
      "##使": 4438,
      "##鬼": 4439,
      "##憾": 4440,
      "##̌": 4441,
      "##罪": 4442,
      "##🔥": 4443,
      "##♠": 4444,
      "##與": 4445,
      "##社": 4446,
      "##念": 4447,
      "##中": 4448,
      "##臟": 4449,
      "##]": 4450,
      "##{": 4451,
      "##爺": 4452,
      "##利": 4453,
      "##ㅉ": 4454,
      "##旋": 4455,
      "##義": 4456,
      "##･": 4457,
      "##🏓": 4458,
      "##奉": 4459,
      "##吉": 4460,
      "##「": 4461,
      "##有": 4462,
      "##的": 4463,
      "##策": 4464,
      "##都": 4465,
      "##向": 4466,
      "##结": 4467,
      "##婚": 4468,
      "##移": 4469,
      "##者": 4470,
      "##倾": 4471,
      "##斜": 4472,
      "##層": 4473,
      "##分": 4474,
      "##兆": 4475,
      "##臣": 4476,
      "##庶": 4477,
      "##治": 4478,
      "##人": 4479,
      "##位": 4480,
      "##識": 4481,
      "##東": 4482,
      "##女": 4483,
      "##😞": 4484,
      "##良": 4485,
      "##心": 4486,
      "##續": 4487,
      "##ョ": 4488,
      "##ㅈ": 4489,
      "##後": 4490,
      "##ᆳ": 4491,
      "##個": 4492,
      "##敬": 4493,
      "##祚": 4494,
      "##堂": 4495,
      "##大": 4496,
      "##小": 4497,
      "##便": 4498,
      "##償": 4499,
      "##生": 4500,
      "##@": 4501,
      "##島": 4502,
      "##息": 4503,
      "##惡": 4504,
      "##木": 4505,
      "##陰": 4506,
      "##知": 4507,
      "##事": 4508,
      "##力": 4509,
      "##ㅗ": 4510,
      "##化": 4511,
      "##群": 4512,
      "##字": 4513,
      "##例": 4514,
      "##軍": 4515,
      "##★": 4516,
      "##[": 4517,
      "##級": 4518,
      "##審": 4519,
      "##出": 4520,
      "##↑": 4521,
      "##🖕": 4522,
      "##🏿": 4523,
      "##ク": 4524,
      "##シ": 4525,
      "##ー": 4526,
      "##ル": 4527,
      "##法": 4528,
      "##勳": 4529,
      "##章": 4530,
      "##肅": 4531,
      "##擊": 4532,
      "##破": 4533,
      "##方": 4534,
      "##に": 4535,
      "##き": 4536,
      "##く": 4537,
      "##影": 4538,
      "##𧬰": 4539,
      "##を": 4540,
      "##与": 4541,
      "##え": 4542,
      "##春": 4543,
      "##琴": 4544,
      "##選": 4545,
      "##擧": 4546,
      "##運": 4547,
      "##動": 4548,
      "##業": 4549,
      "##̆": 4550,
      "##意": 4551,
      "##統": 4552,
      "##國": 4553,
      "##朝": 4554,
      "##明": 4555,
      "##家": 4556,
      "##ᐧ": 4557,
      "##？": 4558,
      "##嫁": 4559,
      "##舟": 4560,
      "##覆": 4561,
      "##兄": 4562,
      "##ㅂ": 4563,
      "##ㅅ": 4564,
      "##棄": 4565,
      "##難": 4566,
      "##$": 4567,
      "##ᆵ": 4568,
      "##ᆴ": 4569,
      "##▼": 4570,
      "##—": 4571,
      "##ㅊ": 4572,
      "##誌": 4573,
      "##匹": 4574,
      "##哲": 4575,
      "##學": 4576,
      "##死": 4577,
      "##辆": 4578,
      "##车": 4579,
      "##淫": 4580,
      "##爲": 4581,
      "##首": 4582,
      "##》": 4583,
      "##※": 4584,
      "##―": 4585,
      "##%": 4586,
      "##♥": 4587,
      "##創": 4588,
      "##😠": 4589,
      "##👿": 4590,
      "##🤬": 4591,
      "##想": 4592,
      "##辱": 4593,
      "##持": 4594,
      "##点": 4595,
      "##ㄶ": 4596,
      "##水": 4597,
      "##板": 4598,
      "##習": 4599,
      "##近": 4600,
      "##平": 4601,
      "##視": 4602,
      "##月": 4603,
      "##“": 4604,
      "##̣": 4605,
      "##̂": 4606,
      "##物": 4607,
      "##毫": 4608,
      "##遠": 4609,
      "##射": 4610,
      "##蔓": 4611,
      "##溪": 4612,
      "##樹": 4613,
      "##♡": 4614,
      "##面": 4615,
      "##鴻": 4616,
      "##兵": 4617,
      "##≪": 4618,
      "##性": 4619,
      "##▲": 4620,
      "##濟": 4621,
      "##世": 4622,
      "##史": 4623,
      "##料": 4624,
      "##件": 4625,
      "##ㅓ": 4626,
      "##發": 4627,
      "##道": 4628,
      "##兩": 4629,
      "##趾": 4630,
      "##通": 4631,
      "##君": 4632,
      "##⁾": 4633,
      "##ㅌ": 4634,
      "##下": 4635,
      "##是": 4636,
      "##支": 4637,
      "##相": 4638,
      "##关": 4639,
      "##请": 4640,
      "##愿": 4641,
      "##内": 4642,
      "##容": 4643,
      "##理": 4644,
      "##由": 4645,
      "##參": 4646,
      "##裁": 4647,
      "##判": 4648,
      "##制": 4649,
      "##度": 4650,
      "##国": 4651,
      "##は": 4652,
      "##規": 4653,
      "##解": 4654,
      "##し": 4655,
      "##て": 4656,
      "##よ": 4657,
      "##る": 4658,
      "##す": 4659,
      "##゙": 4660,
      "##羅": 4661,
      "##６": 4662,
      "##０": 4663,
      "##濊": 4664,
      "##貊": 4665,
      "##■": 4666,
      "##☞": 4667,
      "##ㅕ": 4668,
      "##`": 4669,
      "##誠": 4670,
      "##公": 4671,
      "##務": 4672,
      "##員": 4673,
      "##見": 4674,
      "##潮": 4675,
      "##頭": 4676,
      "##魚": 4677,
      "##躍": 4678,
      "##價": 4679,
      "##示": 4680,
      "##階": 4681,
      "##護": 4682,
      "##塵": 4683,
      "##田": 4684,
      "##ㅐ": 4685,
      "##ㅏ": 4686,
      "##称": 4687,
      "##为": 4688,
      "##来": 4689,
      "##自": 4690,
      "##欧": 4691,
      "##洲": 4692,
      "##如": 4693,
      "##妇": 4694,
      "##約": 4695,
      "##○": 4696,
      "##考": 4697,
      "##白": 4698,
      "##美": 4699,
      "##親": 4700,
      "##}": 4701,
      "##😖": 4702,
      "##😡": 4703,
      "##願": 4704,
      "##府": 4705,
      "##ㄺ": 4706,
      "##刑": 4707,
      "##⇌": 4708,
      "##🇰": 4709,
      "##🇷": 4710,
      "##妹": 4711,
      "##夫": 4712,
      "##佛": 4713,
      "##手": 4714,
      "##無": 4715,
      "##原": 4716,
      "##郡": 4717,
      "##ㅍ": 4718,
      "##育": 4719,
      "##百": 4720,
      "##年": 4721,
      "##之": 4722,
      "##計": 4723,
      "##💗": 4724,
      "##💓": 4725,
      "##👍": 4726,
      "##⃕": 4727,
      "##・": 4728,
      "##ㄲ": 4729,
      "##言": 4730,
      "##●": 4731,
      "##•": 4732,
      "##官": 4733,
      "##∴": 4734,
      "##×": 4735,
      "##己": 4736,
      "##復": 4737,
      "##禮": 4738,
      "##察": 4739,
      "##谷": 4740,
      "##非": 4741,
      "##再": 4742,
      "##恨": 4743,
      "##&": 4744,
      "##說": 4745,
      "##骨": 4746,
      "##光": 4747,
      "##露": 4748,
      "##林": 4749,
      "##灣": 4750,
      "##̛": 4751,
      "##陽": 4752,
      "##文": 4753,
      "##成": 4754,
      "##立": 4755,
      "##👩": 4756,
      "##間": 4757,
      "##正": 4758,
      "##常": 4759,
      "##行": 4760,
      "##层": 4761,
      "##诉": 4762,
      "##求": 4763,
      "##无": 4764,
      "##果": 4765,
      "##奈": 4766,
      "##韩": 4767,
      "##律": 4768,
      "##救": 4769,
      "##助": 4770,
      "##工": 4771,
      "##团": 4772,
      "##过": 4773,
      "##决": 4774,
      "##虛": 4775,
      "##實": 4776,
      "##《": 4777,
      "##命": 4778,
      "##市": 4779,
      "##益": 4780,
      "##兒": 4781,
      "##愛": 4782,
      "##症": 4783,
      "##̄": 4784,
      "##ゃ": 4785,
      "##μ": 4786,
      "##革": 4787,
      "##㈎": 4788,
      "##牲": 4789,
      "##記": 4790,
      "##士": 4791,
      "##時": 4792,
      "##從": 4793,
      "##殺": 4794,
      "##』": 4795,
      "##境": 4796,
      "##似": 4797,
      "##ュ": 4798,
      "##炤": 4799,
      "##庵": 4800,
      "##悛": 4801,
      "##城": 4802,
      "##幸": 4803,
      "##｛": 4804,
      "##守": 4805,
      "##戰": 4806,
      "##形": 4807,
      "##編": 4808,
      "##合": 4809,
      "##仕": 4810,
      "##些": 4811,
      "##现": 4812,
      "##在": 4813,
      "##状": 4814,
      "##态": 4815,
      "##婴": 4816,
      "##幼": 4817,
      "##儿": 4818,
      "##没": 4819,
      "##津": 4820,
      "##贴": 4821,
      "##◈": 4822,
      "##ᅟ": 4823,
      "##石": 4824,
      "##憲": 4825,
      "##永": 4826,
      "##末": 4827,
      "##靺": 4828,
      "##鞨": 4829,
      "##②": 4830,
      "##③": 4831,
      "##然": 4832,
      "##珠": 4833,
      "##黄": 4834,
      "##👨": 4835,
      "##韓": 4836,
      "##積": 4837,
      "##ت": 4838,
      "##خ": 4839,
      "##ا": 4840,
      "##身": 4841,
      "##飾": 4842,
      "##烈": 4843,
      "##鉉": 4844,
      "##◇": 4845,
      "##南": 4846,
      "##‥": 4847,
      "##害": 4848,
      "##干": 4849,
      "##歌": 4850,
      "##吹": 4851,
      "##椎": 4852,
      "##肥": 4853,
      "##牛": 4854,
      "##邵": 4855,
      "##機": 4856,
      "##能": 4857,
      "##順": 4858,
      "##👁": 4859,
      "##所": 4860,
      "##族": 4861,
      "##㎥": 4862,
      "##氣": 4863,
      "##基": 4864,
      "##础": 4865,
      "##活": 4866,
      "##◁": 4867,
      "##沈": 4868,
      "##１": 4869,
      "##入": 4870,
      "##外": 4871,
      "##交": 4872,
      "##産": 4873,
      "##『": 4874,
      "##淑": 4875,
      "##食": 4876,
      "##😆": 4877,
      "##🎵": 4878,
      "##🎶": 4879,
      "##💢": 4880,
      "##อ": 4881,
      "##น": 4882,
      "##ฉ": 4883,
      "##ั": 4884,
      "##บ": 4885,
      "##ก": 4886,
      "##ว": 4887,
      "##่": 4888,
      "##า": 4889,
      "##要": 4890,
      "##望": 4891,
      "##上": 4892,
      "##⑦": 4893,
      "##興": 4894,
      "##十": 4895,
      "##四": 4896,
      "##坊": 4897,
      "##經": 4898,
      "##峰": 4899,
      "##信": 4900,
      "##こ": 4901,
      "##ろ": 4902,
      "##荒": 4903,
      "##唐": 4904,
      "##稽": 4905,
      "##な": 4906,
      "##問": 4907,
      "##題": 4908,
      "##掲": 4909,
      "##け": 4910,
      "##終": 4911,
      "##鍾": 4912,
      "##ｍ": 4913,
      "##☆": 4914,
      "##閣": 4915,
      "##毁": 4916,
      "##傷": 4917,
      "##步": 4918,
      "##の": 4919,
      "##土": 4920,
      "##於": 4921,
      "##憂": 4922,
      "##患": 4923,
      "##證": 4924,
      "##枝": 4925,
      "##槍": 4926,
      "##河": 4927,
      "##哭": 4928,
      "##江": 4929,
      "##流": 4930,
      "##今": 4931,
      "##夕": 4932,
      "##屬": 4933,
      "##吾": 4934,
      "##輩": 4935,
      "##圖": 4936,
      "##惠": 4937,
      "##蓮": 4938,
      "##讒": 4939,
      "##注": 4940,
      "##到": 4941,
      "##我": 4942,
      "##们": 4943,
      "##住": 4944,
      "##权": 4945,
      "##体": 4946,
      "##輪": 4947,
      "##山": 4948,
      "##師": 4949,
      "##塔": 4950,
      "##】": 4951,
      "##眞": 4952,
      "##垢": 4953,
      "##△": 4954,
      "##【": 4955,
      "##災": 4956,
      "##姓": 4957,
      "##會": 4958,
      "##↠": 4959,
      "##〚": 4960,
      "##千": 4961,
      "##→": 4962,
      "##低": 4963,
      "##于": 4964,
      "##本": 4965,
      "##祖": 4966,
      "##高": 4967,
      "##皇": 4968,
      "##帝": 4969,
      "##弗": 4970,
      "##勝": 4971,
      "##馬": 4972,
      "##句": 4973,
      "##麗": 4974,
      "##註": 4975,
      "##花": 4976,
      "##鄕": 4977,
      "##〘": 4978,
      "##龜": 4979,
      "##藥": 4980,
      "##ㅒ": 4981,
      "##慾": 4982,
      "##井": 4983,
      "##友": 4984,
      "##肪": 4985,
      "##磁": 4986,
      "##場": 4987,
      "##即": 4988,
      "##稱": 4989,
      "##波": 4990,
      "##亭": 4991,
      "##三": 4992,
      "##ل": 4993,
      "##م": 4994,
      "##ر": 4995,
      "##ك": 4996,
      "##ز": 4997,
      "##條": 4998,
      "##󰁋": 4999,
      "##充": 5000,
      "##̃": 5001,
      "##核": 5002,
      "##❤": 5003,
      "##⌟": 5004,
      "##里": 5005,
      "##夷": 5006,
      "##罰": 5007,
      "##算": 5008,
      "##準": 5009,
      "##量": 5010,
      "##去": 5011,
      "##份": 5012,
      "##开": 5013,
      "##始": 5014,
      "##因": 5015,
      "##会": 5016,
      "##福": 5017,
      "##问": 5018,
      "##题": 5019,
      "##礎": 5020,
      "##㉯": 5021,
      "##㉰": 5022,
      "##狗": 5023,
      "##試": 5024,
      "##➀": 5025,
      "##闢": 5026,
      "##以": 5027,
      "##及": 5028,
      "##領": 5029,
      "##｢": 5030,
      "##亂": 5031,
      "##确": 5032,
      "##免": 5033,
      "##费": 5034,
      "##教": 5035,
      "##ع": 5036,
      "##ض": 5037,
      "##和": 5038,
      "##域": 5039,
      "##認": 5040,
      "##亚": 5041,
      "##🔷": 5042,
      "##議": 5043,
      "##存": 5044,
      "##ب": 5045,
      "##①": 5046,
      "##州": 5047,
      "##ナ": 5048,
      "##リ": 5049,
      "##謝": 5050,
      "##ㅛ": 5051,
      "##亞": 5052,
      "##歐": 5053,
      "##誤": 5054,
      "##關": 5055,
      "##係": 5056,
      "##雜": 5057,
      "##纂": 5058,
      "##對": 5059,
      "##": 5060,
      "##〕": 5061,
      "##ˮ": 5062,
      "##仰": 5063,
      "##☂": 5064,
      "##團": 5065,
      "##吏": 5066,
      "##皆": 5067,
      "##來": 5068,
      "##賀": 5069,
      "##魔": 5070,
      "##尾": 5071,
      "##電": 5072,
      "##个": 5073,
      "##显": 5074,
      "##把": 5075,
      "##当": 5076,
      "##作": 5077,
      "##署": 5078,
      "##載": 5079,
      "##執": 5080,
      "##表": 5081,
      "##い": 5082,
      "##忙": 5083,
      "##琫": 5084,
      "##淵": 5085,
      "##空": 5086,
      "##元": 5087,
      "##慮": 5088,
      "##反": 5089,
      "##荷": 5090,
      "##杖": 5091,
      "##語": 5092,
      "##⇨": 5093,
      "##ｃ": 5094,
      "##齒": 5095,
      "##腐": 5096,
      "##😾": 5097,
      "##种": 5098,
      "##况": 5099,
      "##发": 5100,
      "##了": 5101,
      "##万": 5102,
      "##般": 5103,
      "##萬": 5104,
      "##😤": 5105,
      "##👎": 5106,
      "##💔": 5107,
      "##王": 5108,
      "##陸": 5109,
      "##㎡": 5110,
      "##太": 5111,
      "##型": 5112,
      "##必": 5113,
      "##防": 5114,
      "##止": 5115,
      "##口": 5116,
      "##😀": 5117,
      "##窦": 5118,
      "##胤": 5119,
      "##洙": 5120,
      "##篇": 5121,
      "##跳": 5122,
      "##忘": 5123,
      "##ن": 5124,
      "##り": 5125,
      "##組": 5126,
      "##む": 5127,
      "##へ": 5128,
      "##と": 5129,
      "##栽": 5130,
      "##培": 5131,
      "##宿": 5132,
      "##觀": 5133,
      "##樓": 5134,
      "##😅": 5135,
      "##孝": 5136,
      "##用": 5137,
      "##車": 5138,
      "##［": 5139,
      "##∼": 5140,
      "##ℓ": 5141,
      "##😲": 5142,
      "##💙": 5143,
      "##負": 5144,
      "##擔": 5145,
      "##ン": 5146,
      "##ラ": 5147,
      "##イ": 5148,
      "##ト": 5149,
      "##❶": 5150,
      "##槿": 5151,
      "##и": 5152,
      "##с": 5153,
      "##а": 5154,
      "##р": 5155,
      "##о": 5156,
      "##н": 5157,
      "##в": 5158,
      "##ч": 5159,
      "##犬": 5160,
      "##何": 5161,
      "##堪": 5162,
      "##誅": 5163,
      "##幅": 5164,
      "##圓": 5165,
      "##漢": 5166,
      "##版": 5167,
      "##金": 5168,
      "##ⅰ": 5169,
      "##他": 5170,
      "##男": 5171,
      "##値": 5172,
      "##奚": 5173,
      "##舉": 5174,
      "##釋": 5175,
      "##寶": 5176,
      "##門": 5177,
      "##▷": 5178,
      "##則": 5179,
      "##音": 5180,
      "##案": 5181,
      "##😏": 5182,
      "##阿": 5183,
      "##貴": 5184,
      "##房": 5185,
      "##虎": 5186,
      "##缺": 5187,
      "##壽": 5188,
      "##👏": 5189,
      "##玟": 5190,
      "##殊": 5191,
      "##風": 5192,
      "##送": 5193,
      "##往": 5194,
      "##商": 5195,
      "##醫": 5196,
      "##院": 5197,
      "##乃": 5198,
      "##伴": 5199,
      "##わ": 5200,
      "##れ": 5201,
      "##ら": 5202,
      "##象": 5203,
      "##起": 5204,
      "##寇": 5205,
      "##導": 5206,
      "##登": 5207,
      "##錄": 5208,
      "##卯": 5209,
      "##糞": 5210,
      "##肉": 5211,
      "##，": 5212,
      "##­": 5213,
      "##掘": 5214,
      "##虔": 5215,
      "##疑": 5216,
      "##ⓒ": 5217,
      "##據": 5218,
      "##服": 5219,
      "##申": 5220,
      "##請": 5221,
      "##祉": 5222,
      "##病": 5223,
      "##昌": 5224,
      "##賢": 5225,
      "##ข": 5226,
      "##โ": 5227,
      "##ห": 5228,
      "##ย": 5229,
      "##优": 5230,
      "##品": 5231,
      "##態": 5232,
      "##依": 5233,
      "##ㅑ": 5234,
      "##♣": 5235,
      "##安": 5236,
      "##全": 5237,
      "##謬": 5238,
      "##療": 5239,
      "##酬": 5240,
      "##̊": 5241,
      "##綱": 5242,
      "##峯": 5243,
      "##覺": 5244,
      "##靈": 5245,
      "##屋": 5246,
      "##亥": 5247,
      "##󰠲": 5248,
      "##画": 5249,
      "##毒": 5250,
      "##謀": 5251,
      "##‏": 5252,
      "##嶺": 5253,
      "##脈": 5254,
      "##耕": 5255,
      "##９": 5256,
      "##４": 5257,
      "##決": 5258,
      "##腦": 5259,
      "##เ": 5260,
      "##ป": 5261,
      "##็": 5262,
      "##ร": 5263,
      "##ู": 5264,
      "##ด": 5265,
      "##แ": 5266,
      "##ผ": 5267,
      "##ล": 5268,
      "##ท": 5269,
      "##ี": 5270,
      "##ต": 5271,
      "##ํ": 5272,
      "##จ": 5273,
      "##ุ": 5274,
      "##ง": 5275,
      "##พ": 5276,
      "##ม": 5277,
      "##ะ": 5278,
      "##้": 5279,
      "##券": 5280,
      "##▶": 5281,
      "##派": 5282,
      "##长": 5283,
      "##对": 5284,
      "##这": 5285,
      "##多": 5286,
      "##印": 5287,
      "##柱": 5288,
      "##敗": 5289,
      "##舒": 5290,
      "##̐": 5291,
      "##現": 5292,
      "##答": 5293,
      "##炭": 5294,
      "##󰡑": 5295,
      "##樂": 5296,
      "##浪": 5297,
      "##岐": 5298,
      "##蔑": 5299,
      "##感": 5300,
      "##某": 5301,
      "##突": 5302,
      "##渠": 5303,
      "##⑨": 5304,
      "##期": 5305,
      "##長": 5306,
      "##踏": 5307,
      "##志": 5308,
      "##應": 5309,
      "##徒": 5310,
      "##放": 5311,
      "##": 5312,
      "##蠻": 5313,
      "##т": 5314,
      "##л": 5315,
      "##ⅲ": 5316,
      "##😭": 5317,
      "##籍": 5318,
      "##附": 5319,
      "##♤": 5320,
      "##墓": 5321,
      "##🙏": 5322,
      "##僞": 5323,
      "##課": 5324,
      "##回": 5325,
      "##☜": 5326,
      "##均": 5327,
      "##е": 5328,
      "##➁": 5329,
      "##ា": 5330,
      "##ល": 5331,
      "##ព": 5332,
      "##ិ": 5333,
      "##ឃ": 5334,
      "##ត": 5335,
      "##刻": 5336,
      "##ⅱ": 5337,
      "##精": 5338,
      "##待": 5339,
      "##遇": 5340,
      "##初": 5341,
      "##寺": 5342,
      "##址": 5343,
      "##鳳": 5344,
      "##過": 5345,
      "##强": 5346,
      "##海": 5347,
      "##炙": 5348,
      "##划": 5349,
      "##财": 5350,
      "##给": 5351,
      "##稅": 5352,
      "##藝": 5353,
      "##類": 5354,
      "##３": 5355,
      "##从": 5356,
      "##广": 5357,
      "##义": 5358,
      "##将": 5359,
      "##庭": 5360,
      "##也": 5361,
      "##列": 5362,
      "##简": 5363,
      "##单": 5364,
      "##": 5365,
      "##警": 5366,
      "##😧": 5367,
      "##斯": 5368,
      "##享": 5369,
      "##受": 5370,
      "##准": 5371,
      "##碩": 5372,
      "##爭": 5373,
      "##〉": 5374,
      "##備": 5375,
      "##指": 5376,
      "##◀": 5377,
      "##|": 5378,
      "##遺": 5379,
      "##錐": 5380,
      "##番": 5381,
      "##號": 5382,
      "##竿": 5383,
      "##总": 5384,
      "##消": 5385,
      "##處": 5386,
      "##企": 5387,
      "##殃": 5388,
      "##野": 5389,
      "##ج": 5390,
      "##ي": 5391,
      "##ٔ": 5392,
      "##瘡": 5393,
      "##痍": 5394,
      "##健": 5395,
      "##务": 5396,
      "##员": 5397,
      "##复": 5398,
      "##说": 5399,
      "##疇": 5400,
      "##協": 5401,
      "##蹟": 5402,
      "##恥": 5403,
      "##庫": 5404,
      "##右": 5405,
      "##✱": 5406,
      "##乘": 5407,
      "##辛": 5408,
      "##苦": 5409,
      "##ถ": 5410,
      "##ไ": 5411,
      "##半": 5412,
      "##旗": 5413,
      "##ㅘ": 5414,
      "##⑴": 5415,
      "##顧": 5416,
      "##密": 5417,
      "##渡": 5418,
      "##ゅ": 5419,
      "##賊": 5420,
      "##職": 5421,
      "##ة": 5422,
      "##冥": 5423,
      "##🔴": 5424,
      "##④": 5425,
      "##🌳": 5426,
      "##完": 5427,
      "##敎": 5428,
      "##甲": 5429,
      "##潤": 5430,
      "##！": 5431,
      "##變": 5432,
      "##＼": 5433,
      "##線": 5434,
      "##孫": 5435,
      "##س": 5436,
      "##و": 5437,
      "##誼": 5438,
      "##か": 5439,
      "##あ": 5440,
      "##除": 5441,
      "##保": 5442,
      "##羊": 5443,
      "##勞": 5444,
      "##続": 5445,
      "##〇": 5446,
      "##☺": 5447,
      "##揚": 5448,
      "##五": 5449,
      "##描": 5450,
      "##述": 5451,
      "##就": 5452,
      "##將": 5453,
      "##談": 5454,
      "##俱": 5455,
      "##备": 5456,
      "##陪": 5457,
      "##郞": 5458,
      "##辰": 5459,
      "##＊": 5460,
      "##華": 5461,
      "##同": 5462,
      "##村": 5463,
      "##紅": 5464,
      "##葉": 5465,
      "##坐": 5466,
      "##絲": 5467,
      "##鳥": 5468,
      "##祭": 5469,
      "##膏": 5470,
      "##た": 5471,
      "##ち": 5472,
      "##対": 5473,
      "##構": 5474,
      "##火": 5475,
      "##重": 5476,
      "##建": 5477,
      "##樑": 5478,
      "##凜": 5479,
      "##汇": 5480,
      "##区": 5481,
      "##怒": 5482,
      "##哀": 5483,
      "##給": 5484,
      "##當": 5485,
      "##却": 5486,
      "##什": 5487,
      "##么": 5488,
      "##拿": 5489,
      "##😰": 5490,
      "##👊": 5491,
      "##‬": 5492,
      "##独": 5493,
      "##触": 5494,
      "##腫": 5495,
      "##諺": 5496,
      "##諸": 5497,
      "##聖": 5498,
      "##邦": 5499,
      "##俊": 5500,
      "##〛": 5501,
      "##⇚": 5502,
      "##銅": 5503,
      "##燮": 5504,
      "##逞": 5505,
      "##午": 5506,
      "##任": 5507,
      "##劣": 5508,
      "##費": 5509,
      "##圳": 5510,
      "##滨": 5511,
      "##路": 5512,
      "##号": 5513,
      "##😥": 5514,
      "##設": 5515,
      "##丙": 5516,
      "##燾": 5517,
      "##壓": 5518,
      "##縣": 5519,
      "##還": 5520,
      "##ㅚ": 5521,
      "##ｏ": 5522,
      "##ｄ": 5523,
      "##ｅ": 5524,
      "##致": 5525,
      "##😂": 5526,
      "##️": 5527,
      "##⃣": 5528,
      "##京": 5529,
      "##养": 5530,
      "##ힹ": 5531,
      "##̋": 5532,
      "##靑": 5533,
      "##慧": 5534,
      "##〮": 5535,
      "##賃": 5536,
      "##久": 5537,
      "##吴": 5538,
      "##崧": 5539,
      "##积": 5540,
      "##极": 5541,
      "##做": 5542,
      "##贡": 5543,
      "##献": 5544,
      "##私": 5545,
      "##う": 5546,
      "##ん": 5547,
      "##俄": 5548,
      "##智": 5549,
      "##秀": 5550,
      "##駁": 5551,
      "##盛": 5552,
      "##故": 5553,
      "##ค": 5554,
      "##ื": 5555,
      "##詞": 5556,
      "##讐": 5557,
      "##恩": 5558,
      "##釘": 5559,
      "##浦": 5560,
      "##．": 5561,
      "##草": 5562,
      "##ッ": 5563,
      "##財": 5564,
      "##🌞": 5565,
      "##ฟ": 5566,
      "##👈": 5567,
      "##封": 5568,
      "##窓": 5569,
      "##蔘": 5570,
      "##処": 5571,
      "##急": 5572,
      "##速": 5573,
      "##広": 5574,
      "##ま": 5575,
      "##至": 5576,
      "##痛": 5577,
      "##斷": 5578,
      "##橫": 5579,
      "##狀": 5580,
      "##佞": 5581,
      "##背": 5582,
      "##援": 5583,
      "##池": 5584,
      "##源": 5585,
      "##纔": 5586,
      "##濫": 5587,
      "##觴": 5588,
      "##♬": 5589,
      "##託": 5590,
      "##角": 5591,
      "##踐": 5592,
      "##錫": 5593,
      "##先": 5594,
      "##其": 5595,
      "##〔": 5596,
      "##氏": 5597,
      "##數": 5598,
      "##思": 5599,
      "##⑫": 5600,
      "##墳": 5601,
      "##壻": 5602,
      "##涛": 5603,
      "##館": 5604,
      "##↞": 5605,
      "##略": 5606,
      "##伤": 5607,
      "##譽": 5608,
      "##⓸": 5609,
      "##提": 5610,
      "##攻": 5611,
      "##古": 5612,
      "##㉡": 5613,
      "##耳": 5614,
      "##゚": 5615,
      "##ょ": 5616,
      "##鎭": 5617,
      "##校": 5618,
      "##蘋": 5619,
      "##微": 5620,
      "##宮": 5621,
      "##犯": 5622,
      "##ㄸ": 5623,
      "##襲": 5624,
      "##告": 5625,
      "##功": 5626,
      "##比": 5627,
      "##羽": 5628,
      "##簽": 5629,
      "##丁": 5630,
      "##斥": 5631,
      "##淸": 5632,
      "##謨": 5633,
      "##舞": 5634,
      "##飮": 5635,
      "##ャ": 5636,
      "##造": 5637,
      "##辜": 5638,
      "##慕": 5639,
      "##５": 5640,
      "##さ": 5641,
      "##ひ": 5642,
      "##盲": 5643,
      "##瞍": 5644,
      "##🔊": 5645,
      "##✏": 5646,
      "##欺": 5647,
      "##伸": 5648,
      "##": 5649,
      "##錢": 5650,
      "##❷": 5651,
      "##式": 5652,
      "##💑": 5653,
      "##➡": 5654,
      "##₩": 5655,
      "##汎": 5656,
      "##💖": 5657,
      "##卦": 5658,
      "##ન": 5659,
      "##冬": 5660,
      "##季": 5661,
      "##オ": 5662,
      "##ヒ": 5663,
      "##連": 5664,
      "##繫": 5665,
      "##書": 5666,
      "##寧": 5667,
      "##隱": 5668,
      "##蔽": 5669,
      "##遷": 5670,
      "##監": 5671,
      "##督": 5672,
      "##別": 5673,
      "##も": 5674,
      "##󰡐": 5675,
      "##倻": 5676,
      "##奮": 5677,
      "##鬪": 5678,
      "##廳": 5679,
      "##🚨": 5680,
      "##🚫": 5681,
      "##握": 5682,
      "##壇": 5683,
      "##旭": 5684,
      "##昇": 5685,
      "##腹": 5686,
      "##つ": 5687,
      "##🏽": 5688,
      "##💃": 5689,
      "##◆": 5690,
      "##🐭": 5691,
      "##🐍": 5692,
      "##資": 5693,
      "##威": 5694,
      "##吗": 5695,
      "##製": 5696,
      "##劑": 5697,
      "##供": 5698,
      "##沃": 5699,
      "##割": 5700,
      "##茂": 5701,
      "##栢": 5702,
      "##悅": 5703,
      "##歸": 5704,
      "##效": 5705,
      "##魂": 5706,
      "##斂": 5707,
      "##危": 5708,
      "##劉": 5709,
      "##亦": 5710,
      "##菲": 5711,
      "##秋": 5712,
      "##落": 5713,
      "##遂": 5714,
      "##弊": 5715,
      "##玲": 5716,
      "##透": 5717,
      "##◯": 5718,
      "##張": 5719,
      "##": 5720,
      "##歷": 5721,
      "##寅": 5722,
      "##僻": 5723,
      "##程": 5724,
      "##◎": 5725,
      "##鳴": 5726,
      "##鼠": 5727,
      "##博": 5728,
      "##典": 5729,
      "##歎": 5730,
      "##媛": 5731,
      "##淚": 5732,
      "##術": 5733,
      "##血": 5734,
      "##󰋯": 5735,
      "##к": 5736,
      "##і": 5737,
      "##ь": 5738,
      "##鐘": 5739,
      "##⑷": 5740,
      "##⑸": 5741,
      "##澈": 5742,
      "##省": 5743,
      "##泉": 5744,
      "##２": 5745,
      "##７": 5746,
      "##築": 5747,
      "##弼": 5748,
      "##互": 5749,
      "##联": 5750,
      "##络": 5751,
      "##研": 5752,
      "##究": 5753,
      "##圈": 5754,
      "##⇉": 5755,
      "##絡": 5756,
      "##船": 5757,
      "##話": 5758,
      "##憺": 5759,
      "##沙": 5760,
      "##居": 5761,
      "##龄": 5762,
      "##ほ": 5763,
      "##戶": 5764,
      "##鼎": 5765,
      "##新": 5766,
      "##次": 5767,
      "##盤": 5768,
      "##胎": 5769,
      "##璽": 5770,
      "##懲": 5771,
      "##曹": 5772,
      "##隨": 5773,
      "##夜": 5774,
      "##航": 5775,
      "##宇": 5776,
      "##宙": 5777,
      "##硏": 5778,
      "##責": 5779,
      "##留": 5780,
      "##记": 5781,
      "##忆": 5782,
      "##辭": 5783,
      "##冠": 5784,
      "##ᇣ": 5785,
      "##ｘ": 5786,
      "##ح": 5787,
      "##د": 5788,
      "##ث": 5789,
      "##繼": 5790,
      "##席": 5791,
      "##😘": 5792,
      "##二": 5793,
      "##錯": 5794,
      "##尺": 5795,
      "##劍": 5796,
      "##乙": 5797,
      "##巳": 5798,
      "##💨": 5799,
      "##💥": 5800,
      "##😈": 5801,
      "##̧": 5802,
      "##宗": 5803,
      "##忽": 5804,
      "##足": 5805,
      "##科": 5806,
      "##宜": 5807,
      "##深": 5808,
      "##愼": 5809,
      "##達": 5810,
      "##鍊": 5811,
      "##筆": 5812,
      "##黙": 5813,
      "##携": 5814,
      "##楫": 5815,
      "##訟": 5816,
      "##隣": 5817,
      "##藤": 5818,
      "##癖": 5819,
      "##澗": 5820,
      "##😣": 5821,
      "##增": 5822,
      "##加": 5823,
      "##税": 5824,
      "##收": 5825,
      "##需": 5826,
      "##裝": 5827,
      "##嬉": 5828,
      "##遊": 5829,
      "##鎔": 5830,
      "##未": 5831,
      "##寒": 5832,
      "##‐": 5833,
      "##直": 5834,
      "##鋌": 5835,
      "##迫": 5836,
      "##": 5837,
      "##璧": 5838,
      "##梁": 5839,
      "##鷺": 5840,
      "##霜": 5841,
      "##丈": 5842,
      "##𖤐": 5843,
      "##㈜": 5844,
      "##乞": 5845,
      "##仲": 5846,
      "##坤": 5847,
      "##聞": 5848,
      "##币": 5849,
      "##⓶": 5850,
      "##柵": 5851,
      "##副": 5852,
      "##株": 5853,
      "##晟": 5854,
      "##皓": 5855,
      "##乎": 5856,
      "##ノ": 5857,
      "##材": 5858,
      "##契": 5859,
      "##齊": 5860,
      "##純": 5861,
      "##❺": 5862,
      "##醉": 5863,
      "##朴": 5864,
      "##荣": 5865,
      "##＾": 5866,
      "##洪": 5867,
      "##喆": 5868,
      "##条": 5869,
      "##母": 5870,
      "##買": 5871,
      "##節": 5872,
      "##凰": 5873,
      "##玉": 5874,
      "##㎞": 5875,
      "##溶": 5876,
      "##璿": 5877,
      "##⌋": 5878,
      "##｣": 5879,
      "##ㅟ": 5880,
      "##特": 5881,
      "##許": 5882,
      "##α": 5883,
      "##票": 5884,
      "##廢": 5885,
      "##宅": 5886,
      "##集": 5887,
      "##失": 5888,
      "##¤": 5889,
      "##幕": 5890,
      "##忠": 5891,
      "##⊙": 5892,
      "##範": 5893,
      "##榮": 5894,
      "##礁": 5895,
      "##夏": 5896,
      "##（": 5897,
      "##😬": 5898,
      "##↙": 5899,
      "##含": 5900,
      "##孤": 5901,
      "##嶼": 5902,
      "##晩": 5903,
      "##景": 5904,
      "##松": 5905,
      "##雄": 5906,
      "##♧": 5907,
      "##技": 5908,
      "##吐": 5909,
      "##ึ": 5910,
      "##ธ": 5911,
      "##ิ": 5912,
      "##聲": 5913,
      "##怨": 5914,
      "##抗": 5915,
      "##營": 5916,
      "##ａ": 5917,
      "##艦": 5918,
      "##岛": 5919,
      "##牙": 5920,
      "##←": 5921,
      "##熙": 5922,
      "##種": 5923,
      "##杯": 5924,
      "##衫": 5925,
      "##易": 5926,
      "##炳": 5927,
      "##戎": 5928,
      "##ε": 5929,
      "##χ": 5930,
      "##ν": 5931,
      "##η": 5932,
      "##禪": 5933,
      "##農": 5934,
      "##戍": 5935,
      "##８": 5936,
      "##黨": 5937,
      "##得": 5938,
      "##□": 5939,
      "##伊": 5940,
      "##束": 5941,
      "##柤": 5942,
      "##汲": 5943,
      "##修": 5944,
      "##譜": 5945,
      "##等": 5946,
      "##应": 5947,
      "##際": 5948,
      "##⇛": 5949,
      "##愚": 5950,
      "##寃": 5951,
      "##早": 5952,
      "##少": 5953,
      "##散": 5954,
      "##幾": 5955,
      "##聯": 5956,
      "##帆": 5957,
      "##檣": 5958,
      "##否": 5959,
      "##伯": 5960,
      "##衛": 5961,
      "##勤": 5962,
      "##辯": 5963,
      "##≫": 5964,
      "##竹": 5965,
      "##旨": 5966,
      "##报": 5967,
      "##驛": 5968,
      "##忍": 5969,
      "##根": 5970,
      "##僚": 5971,
      "##珍": 5972,
      "##⼖": 5973,
      "##閃": 5974,
      "##鱗": 5975,
      "##町": 5976,
      "##休": 5977,
      "##促": 5978,
      "##进": 5979,
      "##覽": 5980,
      "##塘": 5981,
      "##倍": 5982,
      "##◊": 5983,
      "##共": 5984,
      "##卽": 5985,
      "##妄": 5986,
      "##柔": 5987,
      "##拳": 5988,
      "##─": 5989,
      "##🎗": 5990,
      "##葬": 5991,
      "##溫": 5992,
      "##怜": 5993,
      "##吸": 5994,
      "##脫": 5995,
      "##😁": 5996,
      "##🤣": 5997,
      "##😃": 5998,
      "##😄": 5999,
      "##🤩": 6000,
      "##🍍": 6001,
      "##🌄": 6002,
      "##🌃": 6003,
      "##🌌": 6004,
      "##🏗": 6005,
      "##🦀": 6006,
      "##🐈": 6007,
      "##🐒": 6008,
      "##🎾": 6009,
      "##🥅": 6010,
      "##付": 6011,
      "##戌": 6012,
      "##布": 6013,
      "##劇": 6014,
      "##障": 6015,
      "##弄": 6016,
      "##授": 6017,
      "##雲": 6018,
      "##累": 6019,
      "##🎈": 6020,
      "##倒": 6021,
      "##此": 6022,
      "##漡": 6023,
      "##砲": 6024,
      "##ｔ": 6025,
      "##筏": 6026,
      "##喩": 6027,
      "##ⓡ": 6028,
      "##龐": 6029,
      "##翁": 6030,
      "##掌": 6031,
      "##諆": 6032,
      "##且": 6033,
      "##み": 6034,
      "##🤗": 6035,
      "##学": 6036,
      "##第": 6037,
      "##硕": 6038,
      "##悔": 6039,
      "##隔": 6040,
      "##粟": 6041,
      "##✨": 6042,
      "##轮": 6043,
      "##ㅢ": 6044,
      "##尙": 6045,
      "##⟹": 6046,
      "##拼": 6047,
      "##醒": 6048,
      "##開": 6049,
      "##涵": 6050,
      "##盖": 6051,
      "##揮": 6052,
      "##怪": 6053,
      "##進": 6054,
      "##┓": 6055,
      "##亇": 6056,
      "##⇢": 6057,
      "##限": 6058,
      "##球": 6059,
      "##紙": 6060,
      "##▣": 6061,
      "##崎": 6062,
      "##➂": 6063,
      "##恒": 6064,
      "##像": 6065,
      "##蝨": 6066,
      "##襤": 6067,
      "##屠": 6068,
      "##酒": 6069,
      "##☎": 6070,
      "##甚": 6071,
      "##只": 6072,
      "##两": 6073,
      "##星": 6074,
      "##纳": 6075,
      "##拂": 6076,
      "##ف": 6077,
      "##ق": 6078,
      "##報": 6079,
      "##甖": 6080,
      "##罄": 6081,
      "##橡": 6082,
      "##栗": 6083,
      "##貸": 6084,
      "##恭": 6085,
      "##庠": 6086,
      "##須": 6087,
      "##该": 6088,
      "##看": 6089,
      "##潜": 6090,
      "##︙": 6091,
      "##瑚": 6092,
      "##演": 6093,
      "##浮": 6094,
      "##彩": 6095,
      "##奪": 6096,
      "##际": 6097,
      "##较": 6098,
      "##推": 6099,
      "##⓵": 6100,
      "##⟩": 6101,
      "##礙": 6102,
      "##💜": 6103,
      "##況": 6104,
      "##υ": 6105,
      "##θ": 6106,
      "##σ": 6107,
      "##ι": 6108,
      "##っ": 6109,
      "##ね": 6110,
      "##ぇ": 6111,
      "##幻": 6112,
      "##質": 6113,
      "##輿": 6114,
      "##郊": 6115,
      "##帶": 6116,
      "##〗": 6117,
      "##巨": 6118,
      "##繡": 6119,
      "##廟": 6120,
      "##～": 6121,
      "##雇": 6122,
      "##◐": 6123,
      "##轍": 6124,
      "##🏻": 6125,
      "##堆": 6126,
      "##圍": 6127,
      "##蝶": 6128,
      "##裏": 6129,
      "##ᴄ": 6130,
      "##ᴛ": 6131,
      "##ᴠ": 6132,
      "##縛": 6133,
      "##盾": 6134,
      "##那": 6135,
      "##臺": 6136,
      "##◌": 6137,
      "##鐵": 6138,
      "##座": 6139,
      "##–": 6140,
      "##九": 6141,
      "##旺": 6142,
      "##贼": 6143,
      "##按": 6144,
      "##摩": 6145,
      "##东": 6146,
      "##差": 6147,
      "##翕": 6148,
      "##衣": 6149,
      "##禍": 6150,
      "##غ": 6151,
      "##眼": 6152,
      "##": 6153,
      "##寨": 6154,
      "##溝": 6155,
      "##畏": 6156,
      "##燒": 6157,
      "##昊": 6158,
      "##伏": 6159,
      "##羲": 6160,
      "##泌": 6161,
      "##貧": 6162,
      "##承": 6163,
      "##愾": 6164,
      "##笔": 6165,
      "##劃": 6166,
      "##颁": 6167,
      "##餘": 6168,
      "##飄": 6169,
      "##烤": 6170,
      "##鸭": 6171,
      "##秦": 6172,
      "##🇵": 6173,
      "##標": 6174,
      "##蕪": 6175,
      "##🤧": 6176,
      "##、": 6177,
      "##班": 6178,
      "##獸": 6179,
      "##秉": 6180,
      "##灸": 6181,
      "##擇": 6182,
      "##閑": 6183,
      "##撞": 6184,
      "##着": 6185,
      "##寫": 6186,
      "##倫": 6187,
      "##闊": 6188,
      "##炫": 6189,
      "##肢": 6190,
      "##墾": 6191,
      "##敵": 6192,
      "##☟": 6193,
      "##惑": 6194,
      "##調": 6195,
      "##査": 6196,
      "##項": 6197,
      "##″": 6198,
      "##遼": 6199,
      "##峙": 6200,
      "##界": 6201,
      "##薦": 6202,
      "##傳": 6203,
      "##敍": 6204,
      "##垠": 6205,
      "##希": 6206,
      "##🙌": 6207,
      "##陵": 6208,
      "##┃": 6209,
      "##接": 6210,
      "##奏": 6211,
      "##ซ": 6212,
      "##์": 6213,
      "##勇": 6214,
      "##营": 6215,
      "##香": 6216,
      "##港": 6217,
      "##離": 6218,
      "##せ": 6219,
      "##颉": 6220,
      "##獄": 6221,
      "##慶": 6222,
      "##＂": 6223,
      "##�": 6224,
      "##暮": 6225,
      "##裂": 6226,
      "##診": 6227,
      "##匪": 6228,
      "##燦": 6229,
      "##）": 6230,
      "##六": 6231,
      "##愧": 6232,
      "##⇋": 6233,
      "##覇": 6234,
      "##尔": 6235,
      "##华": 6236,
      "##侨": 6237,
      "##岁": 6238,
      "##铁": 6239,
      "##僧": 6240,
      "##侶": 6241,
      "##÷": 6242,
      "##护": 6243,
      "##管": 6244,
      "##引": 6245,
      "##擲": 6246,
      "##讎": 6247,
      "##最": 6248,
      "##排": 6249,
      "##著": 6250,
      "##操": 6251,
      "##彿": 6252,
      "##宣": 6253,
      "##": 6254,
      "##碍": 6255,
      "##懸": 6256,
      "##鈴": 6257,
      "##鼻": 6258,
      "##ㅄ": 6259,
      "##猫": 6260,
      "##稷": 6261,
      "##廛": 6262,
      "##㈀": 6263,
      "##󰡓": 6264,
      "##靜": 6265,
      "##․": 6266,
      "##室": 6267,
      "##规": 6268,
      "##绝": 6269,
      "##数": 6270,
      "##呆": 6271,
      "##謹": 6272,
      "##楚": 6273,
      "##矣": 6274,
      "##🤕": 6275,
      "##疎": 6276,
      "##客": 6277,
      "##顚": 6278,
      "##仁": 6279,
      "##🚩": 6280,
      "##㉢": 6281,
      "##浩": 6282,
      "##偕": 6283,
      "##固": 6284,
      "##瞞": 6285,
      "##属": 6286,
      "##系": 6287,
      "##☓": 6288,
      "##🚋": 6289,
      "##🚉": 6290,
      "##✔": 6291,
      "##獨": 6292,
      "##▖": 6293,
      "##タ": 6294,
      "##フ": 6295,
      "##紀": 6296,
      "##左": 6297,
      "##環": 6298,
      "##￦": 6299,
      "##〈": 6300,
      "##額": 6301,
      "##褒": 6302,
      "##尊": 6303,
      "##台": 6304,
      "##湾": 6305,
      "##矛": 6306,
      "##霹": 6307,
      "##靂": 6308,
      "##斗": 6309,
      "##賠": 6310,
      "##余": 6311,
      "##聽": 6312,
      "##折": 6313,
      "##邑": 6314,
      "##聳": 6315,
      "##烏": 6316,
      "##岳": 6317,
      "##湖": 6318,
      "##禧": 6319,
      "##忌": 6320,
      "##避": 6321,
      "##妻": 6322,
      "##占": 6323,
      "##唱": 6324,
      "##癒": 6325,
      "##魁": 6326,
      "##朽": 6327,
      "##索": 6328,
      "##欲": 6329,
      "##濯": 6330,
      "##纓": 6331,
      "##💕": 6332,
      "##極": 6333,
      "##儀": 6334,
      "##委": 6335,
      "##ㅝ": 6336,
      "##🧓": 6337,
      "##👴": 6338,
      "##磋": 6339,
      "##琢": 6340,
      "##磨": 6341,
      "##銀": 6342,
      "##🌎": 6343,
      "##汽": 6344,
      "##刊": 6345,
      "##結": 6346,
      "##ະ": 6347,
      "##ເ": 6348,
      "##ທ": 6349,
      "##ດ": 6350,
      "##ລ": 6351,
      "##າ": 6352,
      "##ວ": 6353,
      "##😉": 6354,
      "##😨": 6355,
      "##縫": 6356,
      "##⇔": 6357,
      "##纛": 6358,
      "##辈": 6359,
      "##清": 6360,
      "##／": 6361,
      "##议": 6362,
      "##枋": 6363,
      "##飞": 6364,
      "##还": 6365,
      "##卑": 6366,
      "##§": 6367,
      "##°": 6368,
      "##±": 6369,
      "##³": 6370,
      "##¼": 6371,
      "##骸": 6372,
      "##▩": 6373,
      "##や": 6374,
      "##詳": 6375,
      "##お": 6376,
      "##🐖": 6377,
      "##歡": 6378,
      "##达": 6379,
      "##🍕": 6380,
      "##殿": 6381,
      "##御": 6382,
      "##昭": 6383,
      "##濬": 6384,
      "##😩": 6385,
      "##曲": 6386,
      "##溺": 6387,
      "##ᡝ": 6388,
      "##ᡵ": 6389,
      "##ᡤ": 6390,
      "##ᡳ": 6391,
      "##曆": 6392,
      "##ⁿ": 6393,
      "##ᇿ": 6394,
      "##網": 6395,
      "##妾": 6396,
      "##點": 6397,
      "##ㅀ": 6398,
      "##琮": 6399,
      "##吊": 6400,
      "##マ": 6401,
      "##笑": 6402,
      "##鎬": 6403,
      "##適": 6404,
      "##億": 6405,
      "##噫": 6406,
      "##🎊": 6407,
      "##🎉": 6408,
      "##➰": 6409,
      "##菊": 6410,
      "##発": 6411,
      "##⌜": 6412,
      "##英": 6413,
      "##ぃ": 6414,
      "##軌": 6415,
      "##竝": 6416,
      "##搬": 6417,
      "##佳": 6418,
      "##酵": 6419,
      "##样": 6420,
      "##值": 6421,
      "##借": 6422,
      "##鉴": 6423,
      "##耐": 6424,
      "##鳩": 6425,
      "##敏": 6426,
      "##越": 6427,
      "##碑": 6428,
      "##组": 6429,
      "##织": 6430,
      "##各": 6431,
      "##门": 6432,
      "##👀": 6433,
      "##壞": 6434,
      "##耽": 6435,
      "##━": 6436,
      "##飼": 6437,
      "##幌": 6438,
      "##営": 6439,
      "##鉄": 6440,
      "##好": 6441,
      "##曉": 6442,
      "##抄": 6443,
      "##毛": 6444,
      "##皮": 6445,
      "##庆": 6446,
      "##☝": 6447,
      "##堊": 6448,
      "##獺": 6449,
      "##減": 6450,
      "##∞": 6451,
      "##风": 6452,
      "##险": 6453,
      "##😍": 6454,
      "##頗": 6455,
      "##庚": 6456,
      "##緣": 6457,
      "##塚": 6458,
      "##僕": 6459,
      "##鼓": 6460,
      "##隊": 6461,
      "##駅": 6462,
      "##惻": 6463,
      "##慇": 6464,
      "##債": 6465,
      "##": 6466,
      "##侈": 6467,
      "##➫": 6468,
      "##🔔": 6469,
      "##惟": 6470,
      "##ㅙ": 6471,
      "##她": 6472,
      "##偉": 6473,
      "##间": 6474,
      "##响": 6475,
      "##归": 6476,
      "##降": 6477,
      "##🌹": 6478,
      "##ᅠ": 6479,
      "##梏": 6480,
      "##尿": 6481,
      "##衝": 6482,
      "##适": 6483,
      "##走": 6484,
      "##〞": 6485,
      "##µ": 6486,
      "##轉": 6487,
      "##欝": 6488,
      "##権": 6489,
      "##萊": 6490,
      "##納": 6491,
      "##履": 6492,
      "##ː": 6493,
      "##连": 6494,
      "##难": 6495,
      "##资": 6496,
      "##そ": 6497,
      "##😢": 6498,
      "##震": 6499,
      "##讀": 6500,
      "##染": 6501,
      "##懷": 6502,
      "##テ": 6503,
      "##レ": 6504,
      "##置": 6505,
      "##菴": 6506,
      "##๑": 6507,
      "##挺": 6508,
      "##竊": 6509,
      "##选": 6510,
      "##举": 6511,
      "##丹": 6512,
      "##પ": 6513,
      "##洋": 6514,
      "##ใ": 6515,
      "##ศ": 6516,
      "##秩": 6517,
      "##裔": 6518,
      "##择": 6519,
      "##恤": 6520,
      "##⇥": 6521,
      "##曾": 6522,
      "##经": 6523,
      "##ช": 6524,
      "##ส": 6525,
      "##๋": 6526,
      "##ภ": 6527,
      "##叔": 6528,
      "##敖": 6529,
      "##措": 6530,
      "##緡": 6531,
      "##童": 6532,
      "##エ": 6533,
      "##ネ": 6534,
      "##キ": 6535,
      "##🖥": 6536,
      "##滴": 6537,
      "##穿": 6538,
      "##滅": 6539,
      "##抹": 6540,
      "##很": 6541,
      "##错": 6542,
      "##率": 6543,
      "##⇬": 6544,
      "##謙": 6545,
      "##懼": 6546,
      "##蘇": 6547,
      "##驻": 6548,
      "##馆": 6549,
      "##徨": 6550,
      "##霽": 6551,
      "##簿": 6552,
      "##讓": 6553,
      "##脂": 6554,
      "##賦": 6555,
      "##搏": 6556,
      "##∂": 6557,
      "##綻": 6558,
      "##頂": 6559,
      "##ｒ": 6560,
      "##。": 6561,
      "##ə": 6562,
      "##笭": 6563,
      "##姦": 6564,
      "##徐": 6565,
      "##翊": 6566,
      "##柳": 6567,
      "##錮": 6568,
      "##婦": 6569,
      "##😗": 6570,
      "##施": 6571,
      "##😮": 6572,
      "##康": 6573,
      "##榕": 6574,
      "##禛": 6575,
      "##嶋": 6576,
      "##擅": 6577,
      "##茜": 6578,
      "##": 6579,
      "##»": 6580,
      "##㉮": 6581,
      "##ß": 6582,
      "##賣": 6583,
      "##拜": 6584,
      "##庸": 6585,
      "##豁": 6586,
      "##㉠": 6587,
      "##歲": 6588,
      "##ホ": 6589,
      "##臨": 6590,
      "##凍": 6591,
      "##😯": 6592,
      "##チ": 6593,
      "##ス": 6594,
      "##逸": 6595,
      "##陛": 6596,
      "##歳": 6597,
      "##❙": 6598,
      "##牟": 6599,
      "##尹": 6600,
      "##超": 6601,
      "##總": 6602,
      "##遡": 6603,
      "##缴": 6604,
      "##额": 6605,
      "##廉": 6606,
      "##宴": 6607,
      "##概": 6608,
      "##亜": 6609,
      "##ウ": 6610,
      "##ォ": 6611,
      "##強": 6612,
      "##ヘ": 6613,
      "##ェ": 6614,
      "##箱": 6615,
      "##棒": 6616,
      "##⃞": 6617,
      "##溢": 6618,
      "##麻": 6619,
      "##仙": 6620,
      "##斧": 6621,
      "##針": 6622,
      "##◦": 6623,
      "##ㄳ": 6624,
      "##弟": 6625,
      "##妨": 6626,
      "##輔": 6627,
      "##崇": 6628,
      "##祿": 6629,
      "##園": 6630,
      "##त": 6631,
      "##्": 6632,
      "##य": 6633,
      "##ा": 6634,
      "##ग": 6635,
      "##र": 6636,
      "##ह": 6637,
      "##窟": 6638,
      "##酉": 6639,
      "##鷗": 6640,
      "##浣": 6641,
      "##獻": 6642,
      "##藩": 6643,
      "##藻": 6644,
      "##店": 6645,
      "##寸": 6646,
      "##舌": 6647,
      "##煙": 6648,
      "##逐": 6649,
      "##🍁": 6650,
      "##薰": 6651,
      "##競": 6652,
      "##襟": 6653,
      "##实": 6654,
      "##丸": 6655,
      "##弔": 6656,
      "##追": 6657,
      "##緩": 6658,
      "##怠": 6659,
      "##豪": 6660,
      "##睦": 6661,
      "##油": 6662,
      "##ア": 6663,
      "##眄": 6664,
      "##沮": 6665,
      "##则": 6666,
      "##👌": 6667,
      "##檢": 6668,
      "##菱": 6669,
      "##⑵": 6670,
      "##甘": 6671,
      "##変": 6672,
      "##菟": 6673,
      "##捨": 6674,
      "##炅": 6675,
      "##妙": 6676,
      "##傀": 6677,
      "##矓": 6678,
      "##徵": 6679,
      "##瓚": 6680,
      "##橋": 6681,
      "##码": 6682,
      "##雪": 6683,
      "##❸": 6684,
      "##🌶": 6685,
      "##🤮": 6686,
      "##疆": 6687,
      "##顯": 6688,
      "##被": 6689,
      "##扮": 6690,
      "##嫖": 6691,
      "##打": 6692,
      "##劫": 6693,
      "##漁": 6694,
      "##肖": 6695,
      "##疾": 6696,
      "##爾": 6697,
      "##賓": 6698,
      "##": 6699,
      "##為": 6700,
      "##浜": 6701,
      "##彰": 6702,
      "##弛": 6703,
      "##牋": 6704,
      "##販": 6705,
      "##碎": 6706,
      "##阼": 6707,
      "##奭": 6708,
      "##謠": 6709,
      "##虜": 6710,
      "##⓹": 6711,
      "##酷": 6712,
      "##🕪": 6713,
      "##穆": 6714,
      "##細": 6715,
      "##胞": 6716,
      "##炯": 6717,
      "##七": 6718,
      "##搜": 6719,
      "##拒": 6720,
      "##絶": 6721,
      "##动": 6722,
      "##产": 6723,
      "##色": 6724,
      "##≒": 6725,
      "##洞": 6726,
      "##憤": 6727,
      "##塞": 6728,
      "##爐": 6729,
      "##戱": 6730,
      "##ณ": 6731,
      "##毕": 6732,
      "##业": 6733,
      "##论": 6734,
      "##↔": 6735,
      "##澱": 6736,
      "##照": 6737,
      "##才": 6738,
      "##统": 6739,
      "##项": 6740,
      "##目": 6741,
      "##时": 6742,
      "##试": 6743,
      "##阪": 6744,
      "##植": 6745,
      "##晉": 6746,
      "##介": 6747,
      "##禁": 6748,
      "##換": 6749,
      "##💝": 6750,
      "##ソ": 6751,
      "##カ": 6752,
      "##‧": 6753,
      "##": 6754,
      "##賛": 6755,
      "##♂": 6756,
      "##♀": 6757,
      "##笠": 6758,
      "##唯": 6759,
      "##賞": 6760,
      "##旦": 6761,
      "##ಠ": 6762,
      "##瞒": 6763,
      "##弾": 6764,
      "##舅": 6765,
      "##幟": 6766,
      "##壤": 6767,
      "##瑤": 6768,
      "##薄": 6769,
      "##髮": 6770,
      "##膚": 6771,
      "##嘲": 6772,
      "##̎": 6773,
      "##蘭": 6774,
      "##ﻬ": 6775,
      "##☏": 6776,
      "##ฝ": 6777,
      "##♩": 6778,
      "##窮": 6779,
      "##飡": 6780,
      "##😵": 6781,
      "##尽": 6782,
      "##许": 6783,
      "##青": 6784,
      "##瓦": 6785,
      "##褙": 6786,
      "##險": 6787,
      "##剛": 6788,
      "##衆": 6789,
      "##◉": 6790,
      "##畸": 6791,
      "##拙": 6792,
      "##軸": 6793,
      "##慢": 6794,
      "##偏": 6795,
      "##央": 6796,
      "##映": 6797,
      "##昻": 6798,
      "##講": 6799,
      "##预": 6800,
      "##∝": 6801,
      "##澤": 6802,
      "##袋": 6803,
      "##弱": 6804,
      "##蹄": 6805,
      "##兮": 6806,
      "##🤰": 6807,
      "##🤱": 6808,
      "##札": 6809,
      "##喜": 6810,
      "##暫": 6811,
      "##停": 6812,
      "##顔": 6813,
      "##欠": 6814,
      "##邊": 6815,
      "##暗": 6816,
      "##拯": 6817,
      "##疵": 6818,
      "##忧": 6819,
      "##投": 6820,
      "##閱": 6821,
      "##整": 6822,
      "##邱": 6823,
      "##筵": 6824,
      "##": 6825,
      "##樣": 6826,
      "##祕": 6827,
      "##⇓": 6828,
      "##爵": 6829,
      "##🏼": 6830,
      "##🌏": 6831,
      "##傍": 6832,
      "##髑": 6833,
      "##髏": 6834,
      "##誰": 6835,
      "##敌": 6836,
      "##経": 6837,
      "##嗤": 6838,
      "##瓈": 6839,
      "##碾": 6840,
      "##碧": 6841,
      "##澄": 6842,
      "##泓": 6843,
      "##迹": 6844,
      "##廷": 6845,
      "##裕": 6846,
      "##⓷": 6847,
      "##朋": 6848,
      "##☛": 6849,
      "##貞": 6850,
      "##織": 6851,
      "##盟": 6852,
      "##鍼": 6853,
      "##扶": 6854,
      "##養": 6855,
      "##⑶": 6856,
      "##旣": 6857,
      "##騰": 6858,
      "##雨": 6859,
      "##貫": 6860,
      "##洛": 6861,
      "##熱": 6862,
      "##岸": 6863,
      "##返": 6864,
      "##閥": 6865,
      "##导": 6866,
      "##😫": 6867,
      "##❞": 6868,
      "##㉣": 6869,
      "##賈": 6870,
      "##盈": 6871,
      "##仄": 6872,
      "##赚": 6873,
      "##浚": 6874,
      "##鋈": 6875,
      "##ʿ": 6876,
      "##ω": 6877,
      "##淥": 6878,
      "##肴": 6879,
      "##ユ": 6880,
      "##ﾉ": 6881,
      "##ム": 6882,
      "##∎": 6883,
      "##认": 6884,
      "##盡": 6885,
      "##喪": 6886,
      "##朗": 6887,
      "##扁": 6888,
      "##泊": 6889,
      "##☘": 6890,
      "##墨": 6891,
      "##ハ": 6892,
      "##㎉": 6893,
      "##☐": 6894,
      "##ｐ": 6895,
      "##ｌ": 6896,
      "##ｉ": 6897,
      "##ｖ": 6898,
      "##暴": 6899,
      "##摠": 6900,
      "##実": 6901,
      "##側": 6902,
      "##豊": 6903,
      "##冶": 6904,
      "##⚈": 6905,
      "##⇆": 6906,
      "##峻": 6907,
      "##蹂": 6908,
      "##躪": 6909,
      "##🙋": 6910,
      "##耀": 6911,
      "##滯": 6912,
      "##切": 6913,
      "##欽": 6914,
      "##ฯ": 6915,
      "##ษ": 6916,
      "##ฤ": 6917,
      "##団": 6918,
      "##⇄": 6919,
      "##］": 6920,
      "##󰡒": 6921,
      "##遮": 6922,
      "##翼": 6923,
      "##勃": 6924,
      "##♨": 6925,
      "##補": 6926,
      "##貪": 6927,
      "##藏": 6928,
      "##筋": 6929,
      "##隆": 6930,
      "##卖": 6931,
      "##见": 6932,
      "##闻": 6933,
      "##樞": 6934,
      "##畜": 6935,
      "##悚": 6936,
      "##烹": 6937,
      "##罵": 6938,
      "##坦": 6939,
      "##八": 6940,
      "##鏞": 6941,
      "##乐": 6942,
      "##床": 6943,
      "##汀": 6944,
      "##黑": 6945,
      "##❗": 6946,
      "##妃": 6947,
      "##淳": 6948,
      "##燕": 6949,
      "##雀": 6950,
      "##鵠": 6951,
      "##紫": 6952,
      "##朱": 6953,
      "##序": 6954,
      "##维": 6955,
      "##雷": 6956,
      "##觉": 6957,
      "##恣": 6958,
      "##招": 6959,
      "##討": 6960,
      "##謄": 6961,
      "##ы": 6962,
      "##霓": 6963,
      "##☻": 6964,
      "##逆": 6965,
      "##舊": 6966,
      "##嶽": 6967,
      "##☠": 6968,
      "##💻": 6969,
      "##囊": 6970,
      "##怩": 6971,
      "##泥": 6972,
      "##☢": 6973,
      "##轄": 6974,
      "##驥": 6975,
      "##莞": 6976,
      "##补": 6977,
      "##殘": 6978,
      "##或": 6979,
      "##候": 6980,
      "##悼": 6981,
      "##辦": 6982,
      "##⑾": 6983,
      "##⑿": 6984,
      "##😊": 6985,
      "##峴": 6986,
      "##姙": 6987,
      "##🎑": 6988,
      "##ㄻ": 6989,
      "##克": 6990,
      "##敲": 6991,
      "##飛": 6992,
      "##雹": 6993,
      "##☹": 6994,
      "##👹": 6995,
      "##循": 6996,
      "##旬": 6997,
      "##悠": 6998,
      "##湯": 6999,
      "##麤": 7000,
      "##医": 7001,
      "##奴": 7002,
      "##讹": 7003,
      "##冷": 7004,
      "##̥": 7005,
      "##蟲": 7006,
      "##鞭": 7007,
      "##撻": 7008,
      "##岡": 7009,
      "##豕": 7010,
      "##̶": 7011,
      "##̵": 7012,
      "##̕": 7013,
      "##͘": 7014,
      "##͟": 7015,
      "##͢": 7016,
      "##у": 7017,
      "##㎢": 7018,
      "##戴": 7019,
      "##⇐": 7020,
      "##鹿": 7021,
      "##頒": 7022,
      "##罔": 7023,
      "##陆": 7024,
      "##兇": 7025,
      "##别": 7026,
      "##园": 7027,
      "##阜": 7028,
      "##県": 7029,
      "##寬": 7030,
      "##🐷": 7031,
      "##価": 7032,
      "##脚": 7033,
      "##滞": 7034,
      "##澹": 7035,
      "##芳": 7036,
      "##渚": 7037,
      "##快": 7038,
      "##確": 7039,
      "##勿": 7040,
      "##玄": 7041,
      "##ヶ": 7042,
      "##汗": 7043,
      "##俗": 7044,
      "##孟": 7045,
      "##周": 7046,
      "##維": 7047,
      "##液": 7048,
      "##徙": 7049,
      "##√": 7050,
      "##沖": 7051,
      "##燈": 7052,
      "##屯": 7053,
      "##█": 7054,
      "##＞": 7055,
      "##晋": 7056,
      "##🕯": 7057,
      "##練": 7058,
      "##抵": 7059,
      "##楊": 7060,
      "##滿": 7061,
      "##濕": 7062,
      "##擬": 7063,
      "##銃": 7064,
      "##姐": 7065,
      "##坂": 7066,
      "##韻": 7067,
      "##苗": 7068,
      "##笱": 7069,
      "##彈": 7070,
      "##酸": 7071,
      "##味": 7072,
      "##靖": 7073,
      "##李": 7074,
      "##驕": 7075,
      "##堰": 7076,
      "##站": 7077,
      "##焉": 7078,
      "##话": 7079,
      "##紋": 7080,
      "##瓘": 7081,
      "##❱": 7082,
      "##焦": 7083,
      "##踪": 7084,
      "##驾": 7085,
      "##猾": 7086,
      "##沁": 7087,
      "##孩": 7088,
      "##邪": 7089,
      "##ㅃ": 7090,
      "##撤": 7091,
      "##晝": 7092,
      "##畓": 7093,
      "##违": 7094,
      "##虐": 7095,
      "##ش": 7096,
      "##宰": 7097,
      "##退": 7098,
      "##舍": 7099,
      "##仔": 7100,
      "##⓼": 7101,
      "##泳": 7102,
      "##‌": 7103,
      "##祐": 7104,
      "##剔": 7105,
      "##抉": 7106,
      "##辞": 7107,
      "##碼": 7108,
      "##🙇": 7109,
      "##ф": 7110,
      "##款": 7111,
      "##弓": 7112,
      "##册": 7113,
      "##メ": 7114,
      "##柏": 7115,
      "##ص": 7116,
      "##д": 7117,
      "##ᆍ": 7118,
      "##㎣": 7119,
      "##抚": 7120,
      "##宁": 7121,
      "##县": 7122,
      "##温": 7123,
      "##堡": 7124,
      "##符": 7125,
      "##悲": 7126,
      "##诚": 7127,
      "##刺": 7128,
      "##戟": 7129,
      "##異": 7130,
      "##俸": 7131,
      "##湜": 7132,
      "##汚": 7133,
      "##怡": 7134,
      "##跡": 7135,
      "##🔉": 7136,
      "##鏡": 7137,
      "##底": 7138,
      "##め": 7139,
      "##読": 7140,
      "##圭": 7141,
      "##©": 7142,
      "##貝": 7143,
      "##稿": 7144,
      "##ｋ": 7145,
      "##尖": 7146,
      "##ی": 7147,
      "##ｎ": 7148,
      "##ｂ": 7149,
      "##択": 7150,
      "##侵": 7151,
      "##😱": 7152,
      "##🐕": 7153,
      "##段": 7154,
      "##溟": 7155,
      "##効": 7156,
      "##禱": 7157,
      "##疏": 7158,
      "##崩": 7159,
      "##軋": 7160,
      "##溯": 7161,
      "##沿": 7162,
      "##⑩": 7163,
      "##电": 7164,
      "##閏": 7165,
      "##妓": 7166,
      "##刹": 7167,
      "##亨": 7168,
      "##昶": 7169,
      "##璘": 7170,
      "##变": 7171,
      "##赤": 7172,
      "##裸": 7173,
      "##添": 7174,
      "##甸": 7175,
      "##殖": 7176,
      "##薪": 7177,
      "##闕": 7178,
      "##′": 7179,
      "##姬": 7180,
      "##🎎": 7181,
      "##类": 7182,
      "##参": 7183,
      "##价": 7184,
      "##ł": 7185,
      "##飢": 7186,
      "##𓅿": 7187,
      "##孀": 7188,
      "##👺": 7189,
      "##真": 7190,
      "##嫣": 7191,
      "##乏": 7192,
      "##✌": 7193,
      "##⁠": 7194,
      "##悖": 7195,
      "##鄭": 7196,
      "##銖": 7197,
      "##幹": 7198,
      "##転": 7199,
      "##紹": 7200,
      "##驗": 7201,
      "##😙": 7202,
      "##激": 7203,
      "##眸": 7204,
      "##穀": 7205,
      "##吟": 7206,
      "##😓": 7207,
      "##舶": 7208,
      "##鄲": 7209,
      "##🌱": 7210,
      "##🌜": 7211,
      "##芥": 7212,
      "##捋": 7213,
      "##坎": 7214,
      "##展": 7215,
      "##蕭": 7216,
      "##僉": 7217,
      "##❹": 7218,
      "##卵": 7219,
      "##ญ": 7220,
      "##̷": 7221,
      "##͂": 7222,
      "##ͣ": 7223,
      "##̽": 7224,
      "##潟": 7225,
      "##曚": 7226,
      "##曨": 7227,
      "##隙": 7228,
      "##－": 7229,
      "##慰": 7230,
      "##厥": 7231,
      "##勉": 7232,
      "##賴": 7233,
      "##ｓ": 7234,
      "##慨": 7235,
      "##悶": 7236,
      "##姜": 7237,
      "##😇": 7238,
      "##赫": 7239,
      "##貌": 7240,
      "##遜": 7241,
      "##┑": 7242,
      "##❯": 7243,
      "##聘": 7244,
      "##⦌": 7245,
      "##淨": 7246,
      "##説": 7247,
      "##猶": 7248,
      "##写": 7249,
      "##🌟": 7250,
      "##❻": 7251,
      "##喻": 7252,
      "##": 7253,
      "##畎": 7254,
      "##畝": 7255,
      "##哇": 7256,
      "##奸": 7257,
      "##😑": 7258,
      "##😎": 7259,
      "##🙂": 7260,
      "##▪": 7261,
      "##ˈ": 7262,
      "##竟": 7263,
      "##遍": 7264,
      "##螂": 7265,
      "##毅": 7266,
      "##β": 7267,
      "##❣": 7268,
      "##δ": 7269,
      "##裵": 7270,
      "##測": 7271,
      "##汤": 7272,
      "##蛙": 7273,
      "##緖": 7274,
      "##拉": 7275,
      "##锯": 7276,
      "##俠": 7277,
      "##倖": 7278,
      "##̑": 7279,
      "##諱": 7280,
      "##飜": 7281,
      "##云": 7282,
      "##👵": 7283,
      "##🤸": 7284,
      "##调": 7285,
      "##查": 7286,
      "##📢": 7287,
      "##桂": 7288,
      "##績": 7289,
      "##＃": 7290,
      "##倉": 7291,
      "##宝": 7292,
      "##衡": 7293,
      "##漏": 7294,
      "##б": 7295,
      "##ц": 7296,
      "##◑": 7297,
      "##棺": 7298,
      "##斬": 7299,
      "##屍": 7300,
      "##訣": 7301,
      "##舜": 7302,
      "##γ": 7303,
      "##廣": 7304,
      "##夢": 7305,
      "##褐": 7306,
      "##陶": 7307,
      "##片": 7308,
      "##森": 7309,
      "##º": 7310,
      "##«": 7311,
      "##匙": 7312,
      "##飯": 7313,
      "##詩": 7314,
      "##∵": 7315,
      "##慳": 7316,
      "##黃": 7317,
      "##脊": 7318,
      "##㎏": 7319,
      "##ى": 7320,
      "##謁": 7321,
      "##➖": 7322,
      "##👋": 7323,
      "##冤": 7324,
      "##锋": 7325,
      "##瑛": 7326,
      "##雙": 7327,
      "##樽": 7328,
      "##语": 7329,
      "##济": 7330,
      "##予": 7331,
      "##殷": 7332,
      "##徹": 7333,
      "##": 7334,
      "##模": 7335,
      "##✴": 7336,
      "##兰": 7337,
      "##嘉": 7338,
      "##𡤓": 7339,
      "##争": 7340,
      "##┘": 7341,
      "##🍒": 7342,
      "##亮": 7343,
      "##沒": 7344,
      "##膽": 7345,
      "##込": 7346,
      "##ٕ": 7347,
      "##´": 7348,
      "##²": 7349,
      "##肯": 7350,
      "##衍": 7351,
      "##遣": 7352,
      "##槇": 7353,
      "##振": 7354,
      "##彡": 7355,
      "##灘": 7356,
      "##粉": 7357,
      "##杨": 7358,
      "##幣": 7359,
      "##⑪": 7360,
      "##☷": 7361,
      "##损": 7362,
      "##范": 7363,
      "##围": 7364,
      "##🇱": 7365,
      "##⭐": 7366,
      "##浴": 7367,
      "##嬪": 7368,
      "##п": 7369,
      "##詐": 7370,
      "##豫": 7371,
      "##貯": 7372,
      "##蓄": 7373,
      "##潔": 7374,
      "##踊": 7375,
      "##ρ": 7376,
      "##τ": 7377,
      "##κ": 7378,
      "##途": 7379,
      "##替": 7380,
      "##熟": 7381,
      "##ᡩ": 7382,
      "##暖": 7383,
      "##鑽": 7384,
      "##尉": 7385,
      "##⑧": 7386,
      "##逃": 7387,
      "##増": 7388,
      "##乱": 7389,
      "##獲": 7390,
      "##": 7391,
      "##峽": 7392,
      "##蓋": 7393,
      "##领": 7394,
      "##识": 7395,
      "##耆": 7396,
      "##婆": 7397,
      "##坑": 7398,
      "##搪": 7399,
      "##脱": 7400,
      "##横": 7401,
      "##励": 7402,
      "##隸": 7403,
      "##苑": 7404,
      "##撮": 7405,
      "##蒙": 7406,
      "##昧": 7407,
      "##💛": 7408,
      "##狄": 7409,
      "##癡": 7410,
      "##洸": 7411,
      "##瑥": 7412,
      "##齡": 7413,
      "##囑": 7414,
      "##张": 7415,
      "##魄": 7416,
      "##包": 7417,
      "##觸": 7418,
      "##輸": 7419,
      "##若": 7420,
      "##弦": 7421,
      "##更": 7422,
      "##绿": 7423,
      "##卡": 7424,
      "##‎": 7425,
      "##劳": 7426,
      "##ⓝ": 7427,
      "##讨": 7428,
      "##🌸": 7429,
      "##霸": 7430,
      "##撑": 7431,
      "##削": 7432,
      "##娥": 7433,
      "##鬲": 7434,
      "##鹽": 7435,
      "##装": 7436,
      "##据": 7437,
      "##☰": 7438,
      "##视": 7439,
      "##帮": 7440,
      "##誣": 7441,
      "##够": 7442,
      "##弘": 7443,
      "##姪": 7444,
      "##眾": 7445,
      "##捺": 7446,
      "##蒼": 7447,
      "##♪": 7448,
      "##匠": 7449,
      "##輛": 7450,
      "##痲": 7451,
      "##痹": 7452,
      "##粕": 7453,
      "##兎": 7454,
      "##惶": 7455,
      "##恐": 7456,
      "##卓": 7457,
      "##设": 7458,
      "##疗": 7459,
      "##让": 7460,
      "##倡": 7461,
      "##🌷": 7462,
      "##🐱": 7463,
      "##🤹": 7464,
      "##們": 7465,
      "##迎": 7466,
      "##柄": 7467,
      "##椿": 7468,
      "##孑": 7469,
      "##單": 7470,
      "##嫚": 7471,
      "##酌": 7472,
      "##涌": 7473,
      "##ᅳᆯ": 7474,
      "##이": 7475,
      "##ᅳᆫ": 7476,
      "##ᅡᆫ": 7477,
      "##다": 7478,
      "##는": 7479,
      "이": 7480,
      "##니": 7481,
      "##하": 7482,
      "##고": 7483,
      "##지": 7484,
      "##을": 7485,
      "##에": 7486,
      "##ᆸ니": 7487,
      "##가": 7488,
      "##ᆸ니다": 7489,
      "##ᅥᆫ": 7490,
      "##ᅡᆼ": 7491,
      "##ᅥᆼ": 7492,
      "##ᅧᆫ": 7493,
      "##도": 7494,
      "##로": 7495,
      "##시": 7496,
      "##어": 7497,
      "##ᅡᆯ": 7498,
      "##의": 7499,
      "##서": 7500,
      "##ᅮᆫ": 7501,
      "##해": 7502,
      "##ᅧᆼ": 7503,
      "##들": 7504,
      "##한": 7505,
      "##은": 7506,
      "##라": 7507,
      "##ᅮᆨ": 7508,
      "##리": 7509,
      "##를": 7510,
      "하": 7511,
      "##스": 7512,
      "##으": 7513,
      "##ᅯᆫ": 7514,
      "##요": 7515,
      "##ᅵᆫ": 7516,
      "##ᅩᆼ": 7517,
      "##게": 7518,
      "##기": 7519,
      "아": 7520,
      "##ᅮᆯ": 7521,
      "그": 7522,
      "##자": 7523,
      "##인": 7524,
      "어": 7525,
      "있": 7526,
      "##사": 7527,
      "사": 7528,
      "##습니다": 7529,
      "가": 7530,
      "##원": 7531,
      "지": 7532,
      "##나": 7533,
      "##면": 7534,
      "##ᅢᆼ": 7535,
      "##저": 7536,
      "##ᅩᆨ": 7537,
      "##과": 7538,
      "대": 7539,
      "##주": 7540,
      "##ᅥᆺ": 7541,
      "##아": 7542,
      "##그": 7543,
      "##만": 7544,
      "##으로": 7545,
      "##여": 7546,
      "##야": 7547,
      "시": 7548,
      "##정": 7549,
      "##부": 7550,
      "##민": 7551,
      "##ᅳᆼ": 7552,
      "##려": 7553,
      "국": 7554,
      "##대": 7555,
      "저": 7556,
      "##되": 7557,
      "나": 7558,
      "##ᅩᆫ": 7559,
      "주": 7560,
      "정": 7561,
      "수": 7562,
      "##제": 7563,
      "##에서": 7564,
      "바": 7565,
      "##수": 7566,
      "##ᅥᆷ": 7567,
      "##ᅥᆸ": 7568,
      "마": 7569,
      "##화": 7570,
      "자": 7571,
      "##장": 7572,
      "##무": 7573,
      "보": 7574,
      "해": 7575,
      "##금": 7576,
      "모": 7577,
      "##적": 7578,
      "##국": 7579,
      "기": 7580,
      "다": 7581,
      "##하고": 7582,
      "##까": 7583,
      "##하는": 7584,
      "##상": 7585,
      "##ᅢᆨ": 7586,
      "일": 7587,
      "##데": 7588,
      "##ᅥᆯ": 7589,
      "한": 7590,
      "##세": 7591,
      "것": 7592,
      "제": 7593,
      "##ᆻ습니다": 7594,
      "없": 7595,
      "되": 7596,
      "부": 7597,
      "##입니다": 7598,
      "##보": 7599,
      "##러": 7600,
      "##유": 7601,
      "##sd": 7602,
      "##sdf": 7603,
      "##ᅧᆯ": 7604,
      "조": 7605,
      "..": 7606,
      "##치": 7607,
      "##용": 7608,
      "##와": 7609,
      "##asdf": 7610,
      "##년": 7611,
      "생": 7612,
      "##성": 7613,
      "##거": 7614,
      "전": 7615,
      "##asdfasdf": 7616,
      "공": 7617,
      "##일": 7618,
      "국민": 7619,
      "안": 7620,
      "##회": 7621,
      "##합니다": 7622,
      "##구": 7623,
      "##들이": 7624,
      "인": 7625,
      "여": 7626,
      "않": 7627,
      "##업": 7628,
      "##전": 7629,
      "##소": 7630,
      "경": 7631,
      "##각": 7632,
      "##다고": 7633,
      "##동": 7634,
      "고": 7635,
      "위": 7636,
      "##간": 7637,
      "##드": 7638,
      "과": 7639,
      "##것": 7640,
      "미": 7641,
      "##행": 7642,
      "오": 7643,
      "##법": 7644,
      "##히": 7645,
      "아니": 7646,
      "##람": 7647,
      "##생": 7648,
      "##조": 7649,
      "##신": 7650,
      "##하여": 7651,
      "##건": 7652,
      "##할": 7653,
      "##우": 7654,
      "무": 7655,
      "##재": 7656,
      "##당": 7657,
      "##통": 7658,
      "##문": 7659,
      "##며": 7660,
      "##마": 7661,
      "우": 7662,
      "있는": 7663,
      "##산": 7664,
      "##실": 7665,
      "##차": 7666,
      "문": 7667,
      "내": 7668,
      "피": 7669,
      "##바": 7670,
      "##런": 7671,
      "의": 7672,
      "##분": 7673,
      "##명": 7674,
      "생각": 7675,
      "도": 7676,
      "말": 7677,
      "##관": 7678,
      "##비": 7679,
      "상": 7680,
      "##지만": 7681,
      "청": 7682,
      "##에게": 7683,
      "차": 7684,
      "##위": 7685,
      "대한": 7686,
      "소": 7687,
      "##력": 7688,
      "비": 7689,
      "화": 7690,
      "##르": 7691,
      "##래": 7692,
      "##안": 7693,
      "##다는": 7694,
      "##체": 7695,
      "사람": 7696,
      "많": 7697,
      "있습니다": 7698,
      "##ᅣᆼ": 7699,
      "##공": 7700,
      "받": 7701,
      "##교": 7702,
      "불": 7703,
      "중": 7704,
      "노": 7705,
      "현": 7706,
      "##하게": 7707,
      "##직": 7708,
      "##계": 7709,
      "만": 7710,
      "거": 7711,
      "##ᆷ을": 7712,
      "##--": 7713,
      "##워": 7714,
      "개": 7715,
      "더": 7716,
      "##이라": 7717,
      "##세요": 7718,
      "세": 7719,
      "##들은": 7720,
      "##권": 7721,
      "##급": 7722,
      "##단": 7723,
      "##모": 7724,
      "법": 7725,
      "##령": 7726,
      "##청": 7727,
      "유": 7728,
      "##었": 7729,
      "...": 7730,
      "##내": 7731,
      "##오": 7732,
      "못": 7733,
      "##해서": 7734,
      "하는": 7735,
      "우리": 7736,
      "##선": 7737,
      "##학": 7738,
      "##터": 7739,
      "##ᆸ니까": 7740,
      "##등": 7741,
      "##진": 7742,
      "합니다": 7743,
      "##ᆷ이": 7744,
      "##식": 7745,
      "관": 7746,
      "##연": 7747,
      "##방": 7748,
      "20": 7749,
      "##ᇂ게": 7750,
      "서": 7751,
      "##경": 7752,
      "##트": 7753,
      "##된": 7754,
      "신": 7755,
      "##있": 7756,
      "##들의": 7757,
      "할": 7758,
      "요": 7759,
      "교": 7760,
      "당": 7761,
      "##호": 7762,
      "##ᅧᆨ": 7763,
      "살": 7764,
      "##는데": 7765,
      "##든": 7766,
      "##록": 7767,
      "##중": 7768,
      "##asdfasdfasdfasdf": 7769,
      "같": 7770,
      "##속": 7771,
      "등": 7772,
      "##말": 7773,
      "학": 7774,
      "##처": 7775,
      "남": 7776,
      "또": 7777,
      "##미": 7778,
      "알": 7779,
      "##리고": 7780,
      "방": 7781,
      "##ᅳᆨ": 7782,
      "처": 7783,
      "선": 7784,
      "##발": 7785,
      "##까지": 7786,
      "동": 7787,
      "구": 7788,
      "##적으로": 7789,
      "##통령": 7790,
      "강": 7791,
      "실": 7792,
      "##음": 7793,
      "##번": 7794,
      "성": 7795,
      "##개": 7796,
      "진": 7797,
      "##운": 7798,
      "##했": 7799,
      "그러": 7800,
      "##료": 7801,
      "지금": 7802,
      "##ᅳᆷ": 7803,
      "##찰": 7804,
      "적": 7805,
      "##책": 7806,
      "##던": 7807,
      "##님": 7808,
      "##면서": 7809,
      "때": 7810,
      "##없": 7811,
      "정부": 7812,
      "##른": 7813,
      "##월": 7814,
      "##역": 7815,
      "들": 7816,
      "너": 7817,
      "분": 7818,
      "재": 7819,
      "##출": 7820,
      "반": 7821,
      "##적인": 7822,
      "##물": 7823,
      "연": 7824,
      "##00": 7825,
      "발": 7826,
      "최": 7827,
      "##들을": 7828,
      "##ᅵᆷ": 7829,
      "##라고": 7830,
      "##심": 7831,
      "##타": 7832,
      "##죄": 7833,
      "##민국": 7834,
      "##하지": 7835,
      "통": 7836,
      "##반": 7837,
      "##임": 7838,
      "대한민국": 7839,
      "근": 7840,
      "##때": 7841,
      "잘": 7842,
      "계": 7843,
      "##험": 7844,
      "문제": 7845,
      "것이": 7846,
      "##으면": 7847,
      "##겠": 7848,
      "대통령": 7849,
      "이런": 7850,
      "##더": 7851,
      "집": 7852,
      "행": 7853,
      "##영": 7854,
      "##육": 7855,
      "결": 7856,
      "하고": 7857,
      "직": 7858,
      "올": 7859,
      "국가": 7860,
      "##두": 7861,
      "장": 7862,
      "##울": 7863,
      "##결": 7864,
      "민": 7865,
      "감": 7866,
      "##질": 7867,
      "원": 7868,
      "나라": 7869,
      "##키": 7870,
      "입": 7871,
      "##입": 7872,
      "##네": 7873,
      "건": 7874,
      "##주세요": 7875,
      "##약": 7876,
      "##다면": 7877,
      "##해야": 7878,
      "추": 7879,
      "##대로": 7880,
      "##택": 7881,
      "매": 7882,
      "##벌": 7883,
      "아이": 7884,
      "너무": 7885,
      "##었습니다": 7886,
      "##론": 7887,
      "##!!": 7888,
      "##져": 7889,
      "##족": 7890,
      "피해": 7891,
      "왜": 7892,
      "단": 7893,
      "##도록": 7894,
      "##루": 7895,
      "##ᅥᆨ": 7896,
      "저는": 7897,
      "##격": 7898,
      "청원": 7899,
      "물": 7900,
      "##류": 7901,
      "##본": 7902,
      "##..": 7903,
      "##련": 7904,
      "이러": 7905,
      "##라는": 7906,
      "어ᄄ": 7907,
      "##----": 7908,
      "##노": 7909,
      "심": 7910,
      "그런": 7911,
      "##준": 7912,
      "예": 7913,
      "201": 7914,
      "##근": 7915,
      "##혀": 7916,
      "돈": 7917,
      "회": 7918,
      "##능": 7919,
      "그리고": 7920,
      "##무원": 7921,
      "따": 7922,
      "만들": 7923,
      "##태": 7924,
      "##난": 7925,
      "##후": 7926,
      "야": 7927,
      "##복": 7928,
      "##부터": 7929,
      "##ᅥᆷ죄": 7930,
      "외": 7931,
      "##매": 7932,
      "판": 7933,
      "필": 7934,
      "##작": 7935,
      "##럼": 7936,
      "##린": 7937,
      "영": 7938,
      "##파": 7939,
      "##이나": 7940,
      "##주시": 7941,
      "##셔": 7942,
      "##양": 7943,
      "누": 7944,
      "##표": 7945,
      "##판": 7946,
      "##하면": 7947,
      "##들에게": 7948,
      "없는": 7949,
      "평": 7950,
      "##에는": 7951,
      "많은": 7952,
      "##설": 7953,
      "특": 7954,
      "##피": 7955,
      "경찰": 7956,
      "##받": 7957,
      "##군": 7958,
      "##달": 7959,
      "##에도": 7960,
      "##ᆸ시": 7961,
      "##ᆨ을": 7962,
      "운": 7963,
      "##증": 7964,
      "##희": 7965,
      "##나라": 7966,
      "금": 7967,
      "본": 7968,
      "한국": 7969,
      "생각합니다": 7970,
      "출": 7971,
      "임": 7972,
      "##테": 7973,
      "##디": 7974,
      "##활": 7975,
      "사회": 7976,
      "##되는": 7977,
      "힘": 7978,
      "##았": 7979,
      "위해": 7980,
      "드": 7981,
      "##만원": 7982,
      "##어야": 7983,
      "##이고": 7984,
      "##란": 7985,
      "및": 7986,
      "군": 7987,
      "##점": 7988,
      "##기를": 7989,
      "##황": 7990,
      "##천": 7991,
      "##버": 7992,
      "현재": 7993,
      "##립니다": 7994,
      "##어서": 7995,
      "했": 7996,
      "필요": 7997,
      "와": 7998,
      "##폐": 7999,
      "하여": 8000,
      "투": 8001,
      "##같": 8002,
      "김": 8003,
      "여성": 8004,
      "##감": 8005,
      "모든": 8006,
      "##애": 8007,
      "확": 8008,
      "##하기": 8009,
      "10": 8010,
      "##사를": 8011,
      "북": 8012,
      "간": 8013,
      "배": 8014,
      "##켜": 8015,
      "##문에": 8016,
      "##종": 8017,
      "아닌": 8018,
      "##형": 8019,
      "좋": 8020,
      "##배": 8021,
      "##자가": 8022,
      "정말": 8023,
      "##께": 8024,
      "##집": 8025,
      "후": 8026,
      "폐": 8027,
      "검": 8028,
      "두": 8029,
      "에": 8030,
      "취": 8031,
      "##못": 8032,
      "##죠": 8033,
      "다른": 8034,
      "##량": 8035,
      "##길": 8036,
      "이유": 8037,
      "명": 8038,
      "맞": 8039,
      "##이다": 8040,
      "언": 8041,
      "경우": 8042,
      "##까요": 8043,
      "##asdfasdfasdfasdfasdfasdfasdfasdf": 8044,
      "##송": 8045,
      "##지고": 8046,
      "##변": 8047,
      "치": 8048,
      "##항": 8049,
      "하지만": 8050,
      "범죄": 8051,
      "##규": 8052,
      "같은": 8053,
      "정책": 8054,
      "##별": 8055,
      "##시간": 8056,
      "없습니다": 8057,
      "제가": 8058,
      "것입니다": 8059,
      "참": 8060,
      "##망": 8061,
      "##득": 8062,
      "국회": 8063,
      "##절": 8064,
      "이상": 8065,
      "##탁": 8066,
      "##녀": 8067,
      "##외": 8068,
      "바라": 8069,
      "사건": 8070,
      "##살": 8071,
      "##지는": 8072,
      "##있는": 8073,
      "##함": 8074,
      "##박": 8075,
      "또한": 8076,
      "병": 8077,
      "##포": 8078,
      "초": 8079,
      "며": 8080,
      "##라도": 8081,
      "스": 8082,
      "##재인": 8083,
      "##병": 8084,
      "##ᅳ로": 8085,
      "교육": 8086,
      "된": 8087,
      "##않": 8088,
      "약": 8089,
      "##술": 8090,
      "##네요": 8091,
      "##하시": 8092,
      "##강": 8093,
      "저희": 8094,
      "처벌": 8095,
      "문재인": 8096,
      "##ᅯᆯ": 8097,
      "##불": 8098,
      "증": 8099,
      "많이": 8100,
      "##추": 8101,
      "##환": 8102,
      "들어": 8103,
      "##합": 8104,
      "양": 8105,
      "그래": 8106,
      "다시": 8107,
      "세금": 8108,
      "##보다": 8109,
      "하지": 8110,
      "권": 8111,
      "죽": 8112,
      "아무": 8113,
      "설": 8114,
      "공무원": 8115,
      "##기에": 8116,
      "작": 8117,
      "줄": 8118,
      "해야": 8119,
      "##되어": 8120,
      "어떠": 8121,
      "환": 8122,
      "싶": 8123,
      "라": 8124,
      "포": 8125,
      "##푸": 8126,
      "상황": 8127,
      "##겨": 8128,
      "모르": 8129,
      "학생": 8130,
      "##에서는": 8131,
      "될": 8132,
      "##가요": 8133,
      "##리는": 8134,
      "##리를": 8135,
      "##ᆻ다": 8136,
      "##하며": 8137,
      "##것이": 8138,
      "것은": 8139,
      "돌": 8140,
      "파": 8141,
      "북한": 8142,
      "##억": 8143,
      "쓰": 8144,
      "엄": 8145,
      "##으며": 8146,
      "변": 8147,
      "우리나라": 8148,
      "일반": 8149,
      "입니다": 8150,
      "##이라고": 8151,
      "##편": 8152,
      "##거나": 8153,
      "얼": 8154,
      "넘": 8155,
      "사용": 8156,
      "있다": 8157,
      "##토": 8158,
      "##남": 8159,
      "타": 8160,
      "받아": 8161,
      "##들도": 8162,
      "폭": 8163,
      "##냐": 8164,
      "경제": 8165,
      "목": 8166,
      "절": 8167,
      "박": 8168,
      "앞": 8169,
      "사실": 8170,
      "##인데": 8171,
      "몇": 8172,
      "##처럼": 8173,
      "##한다": 8174,
      "형": 8175,
      "##습니까": 8176,
      "글": 8177,
      "##날": 8178,
      "규": 8179,
      "주시": 8180,
      "하나": 8181,
      "답": 8182,
      "업": 8183,
      "않는": 8184,
      "모두": 8185,
      "역": 8186,
      "이렇게": 8187,
      "##현": 8188,
      "##의원": 8189,
      "지원": 8190,
      "##레": 8191,
      "종": 8192,
      "시간": 8193,
      "손": 8194,
      "##립": 8195,
      "책": 8196,
      "##씨": 8197,
      "바랍니다": 8198,
      "학교": 8199,
      "##평": 8200,
      "##순": 8201,
      "##아가": 8202,
      "이제": 8203,
      "위한": 8204,
      "##담": 8205,
      "##인이": 8206,
      "아니라": 8207,
      "허": 8208,
      "어려": 8209,
      "막": 8210,
      "##자는": 8211,
      "담": 8212,
      "##기업": 8213,
      "열": 8214,
      "##이라는": 8215,
      "##예": 8216,
      "벌": 8217,
      "불법": 8218,
      "##사람": 8219,
      "자신": 8220,
      "##됩니다": 8221,
      "##걸": 8222,
      "##되고": 8223,
      "않고": 8224,
      "##느": 8225,
      "##드립니다": 8226,
      "게": 8227,
      "복": 8228,
      "관련": 8229,
      "만들어": 8230,
      "부탁": 8231,
      "각": 8232,
      "서울": 8233,
      "버": 8234,
      "정치": 8235,
      "때문에": 8236,
      "대통령님": 8237,
      "개인": 8238,
      "##폭": 8239,
      "##액": 8240,
      "##사가": 8241,
      "##==": 8242,
      "##지도": 8243,
      "제발": 8244,
      "##북": 8245,
      "것을": 8246,
      "국민의": 8247,
      "큰": 8248,
      "##견": 8249,
      "내용": 8250,
      "##학교": 8251,
      "##지를": 8252,
      "##락": 8253,
      "##--------": 8254,
      "해결": 8255,
      "그런데": 8256,
      "월": 8257,
      "달": 8258,
      "채": 8259,
      "느": 8260,
      "있을": 8261,
      "바ᄁ": 8262,
      "어떻게": 8263,
      "##목": 8264,
      "##지요": 8265,
      "##없이": 8266,
      "##쳐": 8267,
      "되는": 8268,
      "여러": 8269,
      "끄": 8270,
      "##어나": 8271,
      "##접": 8272,
      "잘못": 8273,
      "난": 8274,
      "알고": 8275,
      "##나요": 8276,
      "##자를": 8277,
      "##ᆺ이": 8278,
      "##려고": 8279,
      "##짜": 8280,
      "따라": 8281,
      "##셨": 8282,
      "##패": 8283,
      "현실": 8284,
      "혀": 8285,
      "합": 8286,
      "걸": 8287,
      "##축": 8288,
      "##금을": 8289,
      "##랑": 8290,
      "##할수": 8291,
      "편": 8292,
      "계속": 8293,
      "애": 8294,
      "산": 8295,
      "얼마": 8296,
      "먹": 8297,
      "##글": 8298,
      "##주의": 8299,
      "##석": 8300,
      "한다": 8301,
      "나오": 8302,
      "호": 8303,
      "늘": 8304,
      "친": 8305,
      "##시키": 8306,
      "점": 8307,
      "##익": 8308,
      "새": 8309,
      "##가는": 8310,
      "##파트": 8311,
      "존": 8312,
      "##초": 8313,
      "##율": 8314,
      "##했습니다": 8315,
      "##원을": 8316,
      "이번": 8317,
      "##습": 8318,
      "##녕": 8319,
      "대해": 8320,
      "##례": 8321,
      "##지않": 8322,
      "##림": 8323,
      "##투": 8324,
      "보고": 8325,
      "독": 8326,
      "##자의": 8327,
      "??": 8328,
      "##정부": 8329,
      "근로": 8330,
      "서민": 8331,
      "##향": 8332,
      "발생": 8333,
      "##ᆯ수": 8334,
      "##없는": 8335,
      "##정을": 8336,
      "되어": 8337,
      "함": 8338,
      "##기가": 8339,
      "##동산": 8340,
      "##름": 8341,
      "##냥": 8342,
      "국회의원": 8343,
      "눈": 8344,
      "##으니": 8345,
      "항": 8346,
      "##장을": 8347,
      "이용": 8348,
      "날": 8349,
      "악": 8350,
      "속": 8351,
      "하루": 8352,
      "##째": 8353,
      "##같은": 8354,
      "가능": 8355,
      "중국": 8356,
      "제도": 8357,
      "##쟁": 8358,
      "##ᇂ고": 8359,
      "##하다": 8360,
      "안전": 8361,
      "##프": 8362,
      "##ᆻ고": 8363,
      "##있습니다": 8364,
      "##것도": 8365,
      "##것은": 8366,
      "근무": 8367,
      "기업": 8368,
      "철": 8369,
      "좀": 8370,
      "##범": 8371,
      "억": 8372,
      "있고": 8373,
      "감사": 8374,
      "##리가": 8375,
      "태": 8376,
      "헌": 8377,
      "부동산": 8378,
      "##인지": 8379,
      "##기도": 8380,
      "제대로": 8381,
      "충": 8382,
      "바로": 8383,
      "##와대": 8384,
      "높": 8385,
      "##사는": 8386,
      "폐지": 8387,
      "쉬": 8388,
      "##독": 8389,
      "사람이": 8390,
      "청소": 8391,
      "삼": 8392,
      "##ᆩ에": 8393,
      "체": 8394,
      "없이": 8395,
      "청와대": 8396,
      "##률": 8397,
      "정도": 8398,
      "보호": 8399,
      "##연금": 8400,
      "잡": 8401,
      "##온": 8402,
      "힘들": 8403,
      "은": 8404,
      "##들과": 8405,
      "##먹": 8406,
      "일본": 8407,
      "미국": 8408,
      "##혼": 8409,
      "##이상": 8410,
      "##아서": 8411,
      "휴": 8412,
      "##끼": 8413,
      "##기관": 8414,
      "##크": 8415,
      "이해": 8416,
      "##으나": 8417,
      "자유": 8418,
      "##언": 8419,
      "그래서": 8420,
      "##아야": 8421,
      "급": 8422,
      "사업": 8423,
      "지역": 8424,
      "##ᅦ이": 8425,
      "##럽": 8426,
      "있도록": 8427,
      "인권": 8428,
      "찾": 8429,
      "준": 8430,
      "##머": 8431,
      "##ᆸ시오": 8432,
      "##될": 8433,
      "##부분": 8434,
      "좋게": 8435,
      "을": 8436,
      "##ᆸ게": 8437,
      "##하세요": 8438,
      "##**": 8439,
      "몰": 8440,
      "부모": 8441,
      "##승": 8442,
      "##즘": 8443,
      "12": 8444,
      "의무": 8445,
      "##줄": 8446,
      "가장": 8447,
      "30": 8448,
      "##검": 8449,
      "....": 8450,
      "않습니다": 8451,
      "##악": 8452,
      "##늘": 8453,
      "##공무원": 8454,
      "어린": 8455,
      "아파트": 8456,
      "누구": 8457,
      "##혜": 8458,
      "##협": 8459,
      "##써": 8460,
      "뒤": 8461,
      "##품": 8462,
      "가족": 8463,
      "어떤": 8464,
      "온": 8465,
      "##봐": 8466,
      "뭐": 8467,
      "##장이": 8468,
      "물론": 8469,
      "외국": 8470,
      "##원이": 8471,
      "아닙니다": 8472,
      "일자": 8473,
      "안녕": 8474,
      "##것을": 8475,
      "##티": 8476,
      "사고": 8477,
      "일을": 8478,
      "좋은": 8479,
      "##가지": 8480,
      "보내": 8481,
      "있었": 8482,
      "##값": 8483,
      "있는데": 8484,
      "부탁드립니다": 8485,
      "##먼": 8486,
      "최저": 8487,
      "##는지": 8488,
      "꼭": 8489,
      "##하면서": 8490,
      "말이": 8491,
      "음": 8492,
      "끝": 8493,
      "이러한": 8494,
      "자기": 8495,
      "해당": 8496,
      "조사": 8497,
      "그냥": 8498,
      "##ᆮ고": 8499,
      "##!!!!": 8500,
      "운영": 8501,
      "##채": 8502,
      "로": 8503,
      "식": 8504,
      "##이라도": 8505,
      "##극": 8506,
      "협": 8507,
      "이미": 8508,
      "청소년": 8509,
      "##시켜": 8510,
      "사람들이": 8511,
      "##곳": 8512,
      "##력을": 8513,
      "##ᅲ스": 8514,
      "##해주": 8515,
      "받고": 8516,
      "같습니다": 8517,
      "관리": 8518,
      "정신": 8519,
      "##해주세요": 8520,
      "퇴": 8521,
      "그렇게": 8522,
      "죄": 8523,
      "아직": 8524,
      "됩니다": 8525,
      "##해도": 8526,
      "위해서": 8527,
      "해서": 8528,
      "##다가": 8529,
      "##짓": 8530,
      "##기는": 8531,
      "그러나": 8532,
      "갈": 8533,
      "광": 8534,
      "##화를": 8535,
      "##어도": 8536,
      "면": 8537,
      "11": 8538,
      "활": 8539,
      "노동": 8540,
      "한다고": 8541,
      "문제가": 8542,
      "희": 8543,
      "100": 8544,
      "있다고": 8545,
      "##슨": 8546,
      "##지가": 8547,
      "길": 8548,
      "##너": 8549,
      "하면": 8550,
      "방법": 8551,
      "##존": 8552,
      "##동안": 8553,
      "용": 8554,
      "한번": 8555,
      "##겠습니다": 8556,
      "##정도": 8557,
      "그렇": 8558,
      "뿐": 8559,
      "##하는데": 8560,
      "남성": 8561,
      "행정": 8562,
      "표": 8563,
      "##았습니다": 8564,
      "##상을": 8565,
      "생활": 8566,
      "카": 8567,
      "2018": 8568,
      "질": 8569,
      "언론": 8570,
      "##층": 8571,
      "민주": 8572,
      "회사": 8573,
      "갑": 8574,
      "##취": 8575,
      "##개월": 8576,
      "시행": 8577,
      "요즘": 8578,
      "##한다고": 8579,
      "헌법": 8580,
      "##침": 8581,
      "##큼": 8582,
      "번": 8583,
      "##백": 8584,
      "##시고": 8585,
      "싸": 8586,
      "미래": 8587,
      "봐": 8588,
      "본인": 8589,
      "또는": 8590,
      "완": 8591,
      "통해": 8592,
      "먼": 8593,
      "반대": 8594,
      "곳": 8595,
      "일이": 8596,
      "않을": 8597,
      "##정이": 8598,
      "를": 8599,
      "없어": 8600,
      "지급": 8601,
      "되었": 8602,
      "##카": 8603,
      "같이": 8604,
      "장애": 8605,
      "##자들이": 8606,
      "가해": 8607,
      "##확": 8608,
      "어느": 8609,
      "##ᆻ는데": 8610,
      "접": 8611,
      "##제를": 8612,
      "##세먼": 8613,
      "##에서도": 8614,
      "진행": 8615,
      "겨": 8616,
      "국민이": 8617,
      "##수가": 8618,
      "빠": 8619,
      "확인": 8620,
      "강력": 8621,
      "중요": 8622,
      "이게": 8623,
      "ht": 8624,
      "시작": 8625,
      "것이다": 8626,
      "##하다고": 8627,
      "순": 8628,
      "##주택": 8629,
      "민원": 8630,
      "무슨": 8631,
      "##교육": 8632,
      "신고": 8633,
      "##시는": 8634,
      "까": 8635,
      "##께서": 8636,
      "##것입니다": 8637,
      "##뿐": 8638,
      "요구": 8639,
      "없고": 8640,
      "##행정": 8641,
      "주세요": 8642,
      "않은": 8643,
      "마음": 8644,
      "답변": 8645,
      "즉": 8646,
      "수사": 8647,
      "인해": 8648,
      "개선": 8649,
      "결과": 8650,
      "##했다": 8651,
      "국민들이": 8652,
      "##학생": 8653,
      "창": 8654,
      "##전에": 8655,
      "인간": 8656,
      "일부": 8657,
      "##력이": 8658,
      "천": 8659,
      "당연": 8660,
      "억울": 8661,
      "청년": 8662,
      "지난": 8663,
      "##탄": 8664,
      "총": 8665,
      "적폐": 8666,
      "환경": 8667,
      "병원": 8668,
      "없다": 8669,
      "##되었": 8670,
      "##창": 8671,
      "##답": 8672,
      "업무": 8673,
      "이루": 8674,
      "조금": 8675,
      "미세먼": 8676,
      "##혁": 8677,
      "##이며": 8678,
      "##이는": 8679,
      "##....": 8680,
      "##코": 8681,
      "대부분": 8682,
      "19": 8683,
      "보면": 8684,
      "봅니다": 8685,
      "##이트": 8686,
      "##친": 8687,
      "무어": 8688,
      "##보험": 8689,
      "세계": 8690,
      "##많": 8691,
      "하는데": 8692,
      "토": 8693,
      "##대통령": 8694,
      "어디": 8695,
      "지방": 8696,
      "가지고": 8697,
      "##제로": 8698,
      "글을": 8699,
      "때문": 8700,
      "##자들": 8701,
      "##아니": 8702,
      "돈을": 8703,
      "##욱": 8704,
      "200": 8705,
      "##제도": 8706,
      "##손": 8707,
      "것으로": 8708,
      "건강": 8709,
      "직접": 8710,
      "##막": 8711,
      "##성을": 8712,
      "##범죄": 8713,
      "책임": 8714,
      "##대한": 8715,
      "다니": 8716,
      "보험": 8717,
      "##ᆻ다고": 8718,
      "농": 8719,
      "##자로": 8720,
      "못하고": 8721,
      "뉴스": 8722,
      "꾸": 8723,
      "어ᄍ": 8724,
      "고통": 8725,
      "있다는": 8726,
      "직원": 8727,
      "크": 8728,
      "기준": 8729,
      "##구요": 8730,
      "키": 8731,
      "부분": 8732,
      "##위원": 8733,
      "##군요": 8734,
      "대해서": 8735,
      "좋겠습니다": 8736,
      "##해주시": 8737,
      "국민을": 8738,
      "적용": 8739,
      "##한테": 8740,
      "했습니다": 8741,
      "계약": 8742,
      "##이가": 8743,
      "##철": 8744,
      "##사의": 8745,
      "##ᆸ시요": 8746,
      "않았": 8747,
      "요청": 8748,
      "##정한": 8749,
      "##어요": 8750,
      "받는": 8751,
      "##임금": 8752,
      "##tp": 8753,
      "##주는": 8754,
      "이야": 8755,
      "##광": 8756,
      "##성이": 8757,
      "기회": 8758,
      "##국민": 8759,
      "안녕하세요": 8760,
      "전혀": 8761,
      "##돼": 8762,
      "도우": 8763,
      "##ᅥᆯ어": 8764,
      "##임을": 8765,
      "기본": 8766,
      "결국": 8767,
      "지나": 8768,
      "15": 8769,
      "##릴": 8770,
      "다음": 8771,
      "http": 8772,
      "##//": 8773,
      "##당한": 8774,
      "얼마나": 8775,
      "##권을": 8776,
      "언제": 8777,
      "##상이": 8778,
      "##겁니다": 8779,
      "##열": 8780,
      "되었습니다": 8781,
      "거래": 8782,
      "논": 8783,
      "피해자": 8784,
      "되고": 8785,
      "할수": 8786,
      "수도": 8787,
      "많습니다": 8788,
      "##보고": 8789,
      "##갈": 8790,
      "인정": 8791,
      "##씩": 8792,
      "대한민국의": 8793,
      "##치를": 8794,
      "행위": 8795,
      "받을": 8796,
      "올라": 8797,
      "##드시": 8798,
      "밝": 8799,
      "혜": 8800,
      "투자": 8801,
      "##쓰": 8802,
      "도와": 8803,
      "해주세요": 8804,
      "함께": 8805,
      "망": 8806,
      "##~~": 8807,
      "대출": 8808,
      "##의를": 8809,
      "asdf": 8810,
      "##asdfasdfasdfasdfasdfasdfasdfasdfasdf": 8811,
      "##asdfasdfasdfasdfasdfasdfasdfasdfasdfasdfasdfasdfasdfasdfasdfasdfasdf": 8812,
      "라고": 8813,
      "asdfasdfasdfasdfasdfasdfasdfasdfasdfasdfasdfasdfasdfasdfasdfasdfasdfasdf": 8814,
      "귀": 8815,
      "살고": 8816,
      "##더라도": 8817,
      "대표": 8818,
      "시민": 8819,
      "징": 8820,
      "##돈": 8821,
      "##====": 8822,
      "국민연금": 8823,
      "차량": 8824,
      "##인을": 8825,
      "검찰": 8826,
      "침": 8827,
      "특히": 8828,
      "주택": 8829,
      "##료를": 8830,
      "://": 8831,
      "대학": 8832,
      "##마다": 8833,
      "빨": 8834,
      "상태": 8835,
      "판단": 8836,
      "소득": 8837,
      "부패": 8838,
      "보여": 8839,
      "대책": 8840,
      "납": 8841,
      "##한다는": 8842,
      "먼저": 8843,
      "##히려": 8844,
      "##올": 8845,
      "##봉": 8846,
      "갖": 8847,
      "1년": 8848,
      "##생활": 8849,
      "흐": 8850,
      "##되지": 8851,
      "담당": 8852,
      "##ᅵᆨ": 8853,
      "관계": 8854,
      "##업을": 8855,
      "##잡": 8856,
      "##융": 8857,
      "##색": 8858,
      "승": 8859,
      "정부가": 8860,
      "오늘": 8861,
      "어린이": 8862,
      "의료": 8863,
      "이를": 8864,
      "혼": 8865,
      "오히려": 8866,
      "##사건": 8867,
      "##주고": 8868,
      "지켜": 8869,
      "라는": 8870,
      "##싶": 8871,
      "떠": 8872,
      "청원합니다": 8873,
      "나와": 8874,
      "피해를": 8875,
      "최근": 8876,
      "전문": 8877,
      "혜택": 8878,
      "##인의": 8879,
      "이유로": 8880,
      "월급": 8881,
      "##ᆺ을": 8882,
      "인터": 8883,
      "운전": 8884,
      "코": 8885,
      "법을": 8886,
      "심각": 8887,
      "반드시": 8888,
      "전화": 8889,
      "##때문에": 8890,
      "재산": 8891,
      "일반행정": 8892,
      "똑": 8893,
      "##대를": 8894,
      "일자리": 8895,
      "빼": 8896,
      "##명을": 8897,
      "축": 8898,
      "되지": 8899,
      "볼": 8900,
      "##ᅩᆸ": 8901,
      "##정책": 8902,
      "2017": 8903,
      "##어가": 8904,
      "##므로": 8905,
      "##좀": 8906,
      "##규직": 8907,
      "혹": 8908,
      "##장은": 8909,
      "##긴": 8910,
      "##비를": 8911,
      "그럼": 8912,
      "##화폐": 8913,
      "삶": 8914,
      "##----------------": 8915,
      "존재": 8916,
      "이루어": 8917,
      "판결": 8918,
      "##듯": 8919,
      "##끄": 8920,
      "이에": 8921,
      "앞으로": 8922,
      "거짓": 8923,
      "더욱": 8924,
      "이후": 8925,
      "##등학교": 8926,
      "그만": 8927,
      "##센": 8928,
      "##줘": 8929,
      "##겠지만": 8930,
      "##탈": 8931,
      "##서를": 8932,
      "##장에서": 8933,
      "##일이": 8934,
      "##사고": 8935,
      "##허": 8936,
      "##머니": 8937,
      "##기간": 8938,
      "##명이": 8939,
      "고용": 8940,
      "##심히": 8941,
      "##스테": 8942,
      "##빠": 8943,
      "방송": 8944,
      "해도": 8945,
      "공공": 8946,
      "효": 8947,
      "극": 8948,
      "##자들은": 8949,
      "난민": 8950,
      "정권": 8951,
      "##겠습니까": 8952,
      "##동을": 8953,
      "없애": 8954,
      "있게": 8955,
      "##놓고": 8956,
      "##장에": 8957,
      "히": 8958,
      "##더군요": 8959,
      "아니고": 8960,
      "주민": 8961,
      "!!": 8962,
      "정부는": 8963,
      "국민들의": 8964,
      "신청": 8965,
      "처리": 8966,
      "##체가": 8967,
      "##자에게": 8968,
      "##보니": 8969,
      "##인가": 8970,
      "너무나": 8971,
      "시험": 8972,
      "##식을": 8973,
      "일반행정공무원": 8974,
      "##중에": 8975,
      "##하였습니다": 8976,
      "가정": 8977,
      "##더니": 8978,
      "##으로서": 8979,
      "##적이": 8980,
      "##곡": 8981,
      "당시": 8982,
      "##쪽": 8983,
      "##로운": 8984,
      "택": 8985,
      "열심히": 8986,
      "국내": 8987,
      "18": 8988,
      "결정": 8989,
      "있어": 8990,
      "##행을": 8991,
      "##돌": 8992,
      "핵": 8993,
      "##하였": 8994,
      "부족": 8995,
      "낮": 8996,
      "50": 8997,
      "는": 8998,
      "여기": 8999,
      "당신": 9000,
      "꼬": 9001,
      "누가": 9002,
      "##??": 9003,
      "최저임금": 9004,
      "##하니": 9005,
      "co": 9006,
      "##객": 9007,
      "##ᆸ시다": 9008,
      "##려는": 9009,
      "##구하고": 9010,
      "##가를": 9011,
      "국민들": 9012,
      "의견": 9013,
      "커": 9014,
      "##헌": 9015,
      "최소": 9016,
      "삼성": 9017,
      "##수를": 9018,
      "밖에": 9019,
      "증거": 9020,
      "엄청": 9021,
      "##씀": 9022,
      "진짜": 9023,
      "사는": 9024,
      "바뀌": 9025,
      "저의": 9026,
      "생각이": 9027,
      "육": 9028,
      "##조건": 9029,
      "이건": 9030,
      "매우": 9031,
      "나가": 9032,
      "##응": 9033,
      "##하라": 9034,
      "##입니까": 9035,
      "##리에": 9036,
      "올려": 9037,
      "##도로": 9038,
      "재판": 9039,
      "##휴": 9040,
      "임대": 9041,
      "리": 9042,
      "하시": 9043,
      "##측": 9044,
      "설치": 9045,
      "필요한": 9046,
      "미세먼지": 9047,
      "건설": 9048,
      "가상": 9049,
      "##십": 9050,
      "마련": 9051,
      "##착": 9052,
      "일어나": 9053,
      "하면서": 9054,
      "##칙": 9055,
      "##ᆷ에": 9056,
      "자격": 9057,
      "##원의": 9058,
      "##기로": 9059,
      "절대": 9060,
      "내가": 9061,
      "##했던": 9062,
      "##안을": 9063,
      "##셨으면": 9064,
      "지키": 9065,
      "##님이": 9066,
      "없다고": 9067,
      "별": 9068,
      "얘": 9069,
      "##퇴": 9070,
      "공부": 9071,
      "인터네": 9072,
      "노력": 9073,
      "포함": 9074,
      "##시에": 9075,
      "##서는": 9076,
      "기관": 9077,
      "해외": 9078,
      "주장": 9079,
      "발전": 9080,
      "기사": 9081,
      "##치는": 9082,
      "##획": 9083,
      "이는": 9084,
      "성폭": 9085,
      "살아가": 9086,
      "공개": 9087,
      "못하는": 9088,
      "처음": 9089,
      "##효": 9090,
      "##되면": 9091,
      "수준": 9092,
      "##찬": 9093,
      "안되는": 9094,
      "##ew": 9095,
      "##같이": 9096,
      "것도": 9097,
      "하며": 9098,
      "외국인": 9099,
      "자신의": 9100,
      "가격": 9101,
      "말씀": 9102,
      "내려": 9103,
      "##받고": 9104,
      "믿": 9105,
      "##정은": 9106,
      "아주": 9107,
      "사람들": 9108,
      "##원에": 9109,
      "메": 9110,
      "##셔서": 9111,
      "팔": 9112,
      "선거": 9113,
      "##문제": 9114,
      "##음을": 9115,
      "##ti": 9116,
      "##참": 9117,
      "##아요": 9118,
      "법률": 9119,
      "정보": 9120,
      "뜨": 9121,
      "시키": 9122,
      "당장": 9123,
      "떨어": 9124,
      "국방": 9125,
      "잠": 9126,
      "있으며": 9127,
      "안된": 9128,
      "말을": 9129,
      ".)": 9130,
      "##행위": 9131,
      "위험": 9132,
      "탈": 9133,
      "느끼": 9134,
      "탄": 9135,
      "금융": 9136,
      "못한": 9137,
      "##법을": 9138,
      "##베": 9139,
      "##사업": 9140,
      "대기업": 9141,
      "##엔": 9142,
      "2018년": 9143,
      "사기": 9144,
      "##ᆻ던": 9145,
      "##훈": 9146,
      "싶습니다": 9147,
      "모습": 9148,
      "##밖에": 9149,
      "##해보": 9150,
      "무시": 9151,
      "불구하고": 9152,
      "동의": 9153,
      "나라가": 9154,
      "분명": 9155,
      "복지": 9156,
      "하게": 9157,
      "##혹": 9158,
      "욕": 9159,
      "주는": 9160,
      "##심을": 9161,
      "알려": 9162,
      "술": 9163,
      "우선": 9164,
      "##당장": 9165,
      "지지": 9166,
      "##많은": 9167,
      "머": 9168,
      "40": 9169,
      "개정": 9170,
      "##려면": 9171,
      "있지만": 9172,
      "##가족": 9173,
      "거의": 9174,
      "##하도록": 9175,
      "불가": 9176,
      "선수": 9177,
      "자동": 9178,
      "##조차": 9179,
      "2년": 9180,
      "부패한": 9181,
      "살아": 9182,
      "예산": 9183,
      "강화": 9184,
      "##놓": 9185,
      "다르": 9186,
      "응": 9187,
      "전세": 9188,
      "##스로": 9189,
      "##지역": 9190,
      "이명": 9191,
      "기간": 9192,
      "뽑": 9193,
      "해주시": 9194,
      "비용": 9195,
      "풀": 9196,
      "지금당장": 9197,
      "##식으로": 9198,
      "백": 9199,
      "##인은": 9200,
      "##따": 9201,
      "10년": 9202,
      "##ᆻ을": 9203,
      "담배": 9204,
      "잔": 9205,
      "##핵": 9206,
      "##이지": 9207,
      "000": 9208,
      "##대에": 9209,
      "사법": 9210,
      "##하나": 9211,
      "##도를": 9212,
      "걱": 9213,
      "정부의": 9214,
      "##스럽": 9215,
      "과연": 9216,
      "##위원회": 9217,
      "##ᆻ다는": 9218,
      "##익을": 9219,
      "둘": 9220,
      "선택": 9221,
      "규제": 9222,
      "정상": 9223,
      "어린이집": 9224,
      "##운전": 9225,
      "여자": 9226,
      "놀": 9227,
      "제1": 9228,
      "##대가": 9229,
      "##메": 9230,
      "##총": 9231,
      "아니면": 9232,
      "##충": 9233,
      "!!!": 9234,
      "주변": 9235,
      "과거": 9236,
      "##하지만": 9237,
      "전국": 9238,
      "취업": 9239,
      "##꾸": 9240,
      "인터넷": 9241,
      "채용": 9242,
      "##폰": 9243,
      "##다니": 9244,
      "희망": 9245,
      "##드는": 9246,
      "잘못된": 9247,
      "가상화폐": 9248,
      "##복지": 9249,
      "놓": 9250,
      "짜": 9251,
      "해주": 9252,
      "기술": 9253,
      "하였습니다": 9254,
      "##일을": 9255,
      "홍": 9256,
      "교통": 9257,
      "겁니다": 9258,
      "동물": 9259,
      "말도": 9260,
      "##하거나": 9261,
      "중소": 9262,
      "##ᆻ지만": 9263,
      "문화": 9264,
      "##세를": 9265,
      "##니까": 9266,
      "##들어": 9267,
      "##대체": 9268,
      "나라를": 9269,
      "##만이": 9270,
      "##원은": 9271,
      "##원에서": 9272,
      "읽": 9273,
      "결혼": 9274,
      "추가": 9275,
      "살인": 9276,
      "감사합니다": 9277,
      "##업체": 9278,
      "힘든": 9279,
      "##욕": 9280,
      "있어서": 9281,
      "집값": 9282,
      "##굴": 9283,
      "고소": 9284,
      "##인가요": 9285,
      "써": 9286,
      "##림피": 9287,
      "보다": 9288,
      "남북": 9289,
      "철저": 9290,
      "정책을": 9291,
      "데": 9292,
      "나이": 9293,
      "이명박": 9294,
      "범": 9295,
      "폭행": 9296,
      "음주": 9297,
      "금액": 9298,
      "울": 9299,
      "유치": 9300,
      "무고": 9301,
      "##르고": 9302,
      "##되어야": 9303,
      "##우는": 9304,
      "##비스": 9305,
      "의해": 9306,
      "각종": 9307,
      "##근혜": 9308,
      "받지": 9309,
      "선생": 9310,
      "##치고": 9311,
      "출산": 9312,
      ".....": 9313,
      "교사": 9314,
      "##시설": 9315,
      "분양": 9316,
      "페": 9317,
      "돈이": 9318,
      "##ᆺ한": 9319,
      "돼": 9320,
      "##id": 9321,
      "으로": 9322,
      "오래": 9323,
      "괴": 9324,
      "##관리": 9325,
      "전부": 9326,
      "서로": 9327,
      "##들에": 9328,
      "인한": 9329,
      "패": 9330,
      "25": 9331,
      "차별": 9332,
      "제한": 9333,
      "투기": 9334,
      "한다는": 9335,
      "사람들은": 9336,
      "터": 9337,
      "**": 9338,
      "행동": 9339,
      "부디": 9340,
      "직장": 9341,
      "사람은": 9342,
      "장애인": 9343,
      "우리가": 9344,
      "##ᆻ으면": 9345,
      "젊": 9346,
      "들어가": 9347,
      "##만을": 9348,
      "유지": 9349,
      "어렵": 9350,
      "##새": 9351,
      "##자들의": 9352,
      "세상": 9353,
      "없었": 9354,
      "연금": 9355,
      "보장": 9356,
      "행복": 9357,
      "엄마": 9358,
      "더이상": 9359,
      "##징": 9360,
      "수가": 9361,
      "##er": 9362,
      "##아이": 9363,
      "도로": 9364,
      "시켜": 9365,
      "##명의": 9366,
      "아무런": 9367,
      "##압": 9368,
      "말고": 9369,
      ",,": 9370,
      "##센터": 9371,
      "무조건": 9372,
      "##심이": 9373,
      "##져야": 9374,
      "도대체": 9375,
      "되면": 9376,
      "##장의": 9377,
      "##부모": 9378,
      "##식이": 9379,
      "장관": 9380,
      "##경찰": 9381,
      "##계를": 9382,
      "대하여": 9383,
      "아이를": 9384,
      "강제": 9385,
      "댓": 9386,
      "무서": 9387,
      "개혁": 9388,
      "정의": 9389,
      "구속": 9390,
      "친구": 9391,
      "받은": 9392,
      "푸": 9393,
      "갑질": 9394,
      "판매": 9395,
      "찾아": 9396,
      "동안": 9397,
      "남자": 9398,
      "따라서": 9399,
      "##음이": 9400,
      "안되": 9401,
      "등을": 9402,
      "##사에": 9403,
      "아버": 9404,
      "##ᆷ의": 9405,
      "##페": 9406,
      "##하시는": 9407,
      "기다": 9408,
      "깨": 9409,
      "정부에서": 9410,
      "제2": 9411,
      "##으로써": 9412,
      "13": 9413,
      "국민들은": 9414,
      "##밀": 9415,
      "치료": 9416,
      "##등을": 9417,
      "##사회": 9418,
      "만약": 9419,
      "##위해": 9420,
      "##덕": 9421,
      "못하게": 9422,
      "아무리": 9423,
      "밝혀": 9424,
      "##싸": 9425,
      "불편": 9426,
      "##부가": 9427,
      "##물을": 9428,
      "##되었습니다": 9429,
      "주차": 9430,
      "암": 9431,
      "없을": 9432,
      "개발": 9433,
      "##단체": 9434,
      "##호사": 9435,
      "박근혜": 9436,
      "충분": 9437,
      "부터": 9438,
      "국제": 9439,
      "##지원": 9440,
      "등의": 9441,
      "특별": 9442,
      "가진": 9443,
      "##0만원": 9444,
      "##기고": 9445,
      "가지": 9446,
      "##소득": 9447,
      "트": 9448,
      "##수의": 9449,
      "당연히": 9450,
      "##땅": 9451,
      "금지": 9452,
      "밀": 9453,
      "##림픽": 9454,
      "##균": 9455,
      "##도가": 9456,
      "##보면": 9457,
      "먹고": 9458,
      "처벌을": 9459,
      "우리는": 9460,
      "이유는": 9461,
      "대체": 9462,
      "자녀": 9463,
      "##지어": 9464,
      "ww": 9465,
      "##앙": 9466,
      "##영업": 9467,
      "없다는": 9468,
      "완전": 9469,
      "##우고": 9470,
      "##한다면": 9471,
      "나서": 9472,
      "혈": 9473,
      "소비": 9474,
      "이야기": 9475,
      "공정": 9476,
      "참여": 9477,
      "##자에": 9478,
      "##렴": 9479,
      "돌아": 9480,
      "##문을": 9481,
      "이전": 9482,
      "여러분": 9483,
      "있었습니다": 9484,
      "##재판": 9485,
      "소방": 9486,
      "안됩니다": 9487,
      "##벽": 9488,
      "##실을": 9489,
      "##및": 9490,
      "##이면": 9491,
      "##라면": 9492,
      "어려운": 9493,
      "세금을": 9494,
      "기존": 9495,
      "##만큼": 9496,
      "##ᆫ드": 9497,
      "아직도": 9498,
      "임금": 9499,
      "##조사": 9500,
      "##누": 9501,
      "시스테": 9502,
      "중요한": 9503,
      "##지에": 9504,
      "젊은": 9505,
      "능": 9506,
      "땅": 9507,
      "법이": 9508,
      "##거래": 9509,
      "이제는": 9510,
      "##또": 9511,
      "사이": 9512,
      "준비": 9513,
      "집단": 9514,
      "빨리": 9515,
      "##부를": 9516,
      "##ㅋㅋ": 9517,
      "##부는": 9518,
      "관한": 9519,
      "부산": 9520,
      "첫": 9521,
      "때문입니다": 9522,
      "까지": 9523,
      "##받는": 9524,
      "인상": 9525,
      "##가가": 9526,
      "##킨": 9527,
      "있어야": 9528,
      "착": 9529,
      "##지지": 9530,
      "급여": 9531,
      "##척": 9532,
      "항상": 9533,
      "##필": 9534,
      "게시": 9535,
      "##소를": 9536,
      "##가고": 9537,
      "중소기업": 9538,
      "사람을": 9539,
      "주고": 9540,
      "대상": 9541,
      "##ᆸ연": 9542,
      "제출": 9543,
      "적극": 9544,
      "청원을": 9545,
      "가입": 9546,
      "스스로": 9547,
      "##리지": 9548,
      "##뢰": 9549,
      "저지": 9550,
      "##이란": 9551,
      "제안": 9552,
      "가져": 9553,
      "##말고": 9554,
      "잃": 9555,
      "문제는": 9556,
      "않아": 9557,
      "싫": 9558,
      "국토": 9559,
      "##0년": 9560,
      "등등": 9561,
      "제공": 9562,
      "평화": 9563,
      "숨": 9564,
      "봉": 9565,
      "훈": 9566,
      "##집니다": 9567,
      "무엇": 9568,
      "받았": 9569,
      "발표": 9570,
      "##수당": 9571,
      "나는": 9572,
      "##생각": 9573,
      "##으면서": 9574,
      "의사": 9575,
      "만든": 9576,
      "##었다": 9577,
      "단속": 9578,
      "조직": 9579,
      "##이라면": 9580,
      "아래": 9581,
      "##함을": 9582,
      "##음에도": 9583,
      "주식": 9584,
      "황": 9585,
      "##오는": 9586,
      "지금까지": 9587,
      "진정": 9588,
      "##르는": 9589,
      "##정보": 9590,
      "압": 9591,
      "생각을": 9592,
      "그대로": 9593,
      "사회적": 9594,
      "짓": 9595,
      "불안": 9596,
      "##겠다고": 9597,
      "저도": 9598,
      "지속": 9599,
      "수많은": 9600,
      "문제를": 9601,
      "##내고": 9602,
      "##움": 9603,
      "##랴": 9604,
      "자동차": 9605,
      "##체를": 9606,
      "##뜨": 9607,
      "부담": 9608,
      "향": 9609,
      "##대표": 9610,
      "댓글": 9611,
      "기초": 9612,
      "심지어": 9613,
      "##팀": 9614,
      "##좋": 9615,
      "모르는": 9616,
      "##거리": 9617,
      "##치가": 9618,
      "된다": 9619,
      "정확": 9620,
      "##럴": 9621,
      "##듯이": 9622,
      "3년": 9623,
      "##무를": 9624,
      "가는": 9625,
      "작은": 9626,
      "##자와": 9627,
      "##괴": 9628,
      "퇴직": 9629,
      "하기": 9630,
      "아이들이": 9631,
      "##정에": 9632,
      "받아야": 9633,
      "거짓말": 9634,
      "종교": 9635,
      "자살": 9636,
      "돌아가": 9637,
      "산업": 9638,
      "##스트": 9639,
      "##였습니다": 9640,
      "측": 9641,
      "전기": 9642,
      "##수도": 9643,
      "아시": 9644,
      "검사": 9645,
      "##점을": 9646,
      "제외": 9647,
      "##나라는": 9648,
      "국가가": 9649,
      "얻": 9650,
      "단순": 9651,
      "##분들": 9652,
      "연락": 9653,
      "책임을": 9654,
      "사라": 9655,
      "도시": 9656,
      "벌금": 9657,
      "의미": 9658,
      "##츠": 9659,
      "##했고": 9660,
      "##삼": 9661,
      "이해가": 9662,
      "##러운": 9663,
      "##꺼": 9664,
      "##화가": 9665,
      "알아": 9666,
      "##숙": 9667,
      "늦": 9668,
      "궁": 9669,
      "com": 9670,
      "추진": 9671,
      "바꾸": 9672,
      "##급을": 9673,
      "쓰레": 9674,
      "느ᄁ": 9675,
      "보상": 9676,
      "##계약": 9677,
      "##분이": 9678,
      "##관계": 9679,
      "##수있": 9680,
      "작성": 9681,
      "비정": 9682,
      "프로": 9683,
      "택시": 9684,
      "17": 9685,
      "2017년": 9686,
      "##겠다": 9687,
      "구조": 9688,
      "은행": 9689,
      "답답": 9690,
      "따른": 9691,
      "##특": 9692,
      "##지로": 9693,
      "맡": 9694,
      "##플": 9695,
      "##회사": 9696,
      "보는": 9697,
      "겪": 9698,
      "베": 9699,
      "##합니까": 9700,
      "자영업": 9701,
      "한달": 9702,
      "##보호": 9703,
      "14": 9704,
      "##on": 9705,
      "##하신": 9706,
      "헤": 9707,
      "줄어": 9708,
      "에서": 9709,
      "근데": 9710,
      "2016": 9711,
      "변경": 9712,
      "병역": 9713,
      "좋아": 9714,
      "판사": 9715,
      "매일": 9716,
      "필요합니다": 9717,
      "##칠": 9718,
      "좌": 9719,
      "사랑": 9720,
      "##브": 9721,
      "##그래": 9722,
      "##념": 9723,
      "아닙니까": 9724,
      "##쇄": 9725,
      "건물": 9726,
      "역시": 9727,
      "##시키고": 9728,
      "넣": 9729,
      "21": 9730,
      "권력": 9731,
      "##납": 9732,
      "시간이": 9733,
      "##슬": 9734,
      "##쁜": 9735,
      "동일": 9736,
      "전쟁": 9737,
      "##하던": 9738,
      "쉽게": 9739,
      "5년": 9740,
      "##생을": 9741,
      "있는지": 9742,
      "지금은": 9743,
      "이하": 9744,
      "설명": 9745,
      "군대": 9746,
      "삭": 9747,
      "경우가": 9748,
      "사실을": 9749,
      "강남": 9750,
      "성범죄": 9751,
      "밥": 9752,
      "##듭니다": 9753,
      "##ᆺ불": 9754,
      "네": 9755,
      "의원": 9756,
      "##즈": 9757,
      "16": 9758,
      "걱정": 9759,
      "##00만원": 9760,
      "##조직": 9761,
      "##하자": 9762,
      "긴": 9763,
      "졸": 9764,
      "##이기": 9765,
      "위하여": 9766,
      "테": 9767,
      "새로운": 9768,
      "검토": 9769,
      "대한민국은": 9770,
      "딸": 9771,
      "정당": 9772,
      "생각됩니다": 9773,
      "등록": 9774,
      "포기": 9775,
      "높은": 9776,
      "##나는": 9777,
      "전환": 9778,
      "##위를": 9779,
      "##건지": 9780,
      "확실": 9781,
      "##읍니다": 9782,
      "##했는데": 9783,
      "빌": 9784,
      "##10": 9785,
      "주시기": 9786,
      "국민들을": 9787,
      "대법": 9788,
      "쓸": 9789,
      "송": 9790,
      "##냐고": 9791,
      "국민은": 9792,
      "경쟁": 9793,
      "위반": 9794,
      "거주": 9795,
      "##차를": 9796,
      "정규직": 9797,
      "##알": 9798,
      "국정": 9799,
      "국가의": 9800,
      "##겠다는": 9801,
      "고발": 9802,
      "***": 9803,
      "##들만": 9804,
      "고려": 9805,
      "##몰": 9806,
      "##국가": 9807,
      "##꾼": 9808,
      "조선": 9809,
      "##건가요": 9810,
      "상황이": 9811,
      "올리": 9812,
      "24": 9813,
      "##제가": 9814,
      "가까": 9815,
      "아닌가요": 9816,
      "혹은": 9817,
      "주십시오": 9818,
      "서류": 9819,
      "상대": 9820,
      "그때": 9821,
      "챙": 9822,
      "조작": 9823,
      "버스": 9824,
      "##금지": 9825,
      "선생님": 9826,
      "##학년": 9827,
      "##하십니까": 9828,
      "부정": 9829,
      "수십": 9830,
      "얘기": 9831,
      "##ews": 9832,
      "##!!!!!!!!": 9833,
      "시설": 9834,
      "##관이": 9835,
      "대통령이": 9836,
      "##하다는": 9837,
      "##ᅡᆼ비": 9838,
      "사망": 9839,
      "이어": 9840,
      "##된다": 9841,
      "촛불": 9842,
      "##부의": 9843,
      "군인": 9844,
      "아동": 9845,
      "##만으로": 9846,
      "공원": 9847,
      "##었고": 9848,
      "##옥": 9849,
      "##일에": 9850,
      "실시": 9851,
      "사이트": 9852,
      "##내용": 9853,
      "평등": 9854,
      "분들이": 9855,
      "##ᆸ습니다": 9856,
      "##해라": 9857,
      "평가": 9858,
      "최소한": 9859,
      "찍": 9860,
      "##킹": 9861,
      "##기준": 9862,
      "노인": 9863,
      "),": 9864,
      "지금도": 9865,
      "보니": 9866,
      "점점": 9867,
      "보유": 9868,
      "https": 9869,
      "안타": 9870,
      "##할때": 9871,
      "우리의": 9872,
      "된다고": 9873,
      "##하는게": 9874,
      "아닐": 9875,
      "붙": 9876,
      "##장님": 9877,
      "어머니": 9878,
      "골": 9879,
      "##롱": 9880,
      "김정은": 9881,
      "##자들을": 9882,
      "사과": 9883,
      "싶은": 9884,
      "견": 9885,
      "있으면": 9886,
      "##쉬": 9887,
      "##점이": 9888,
      "하니": 9889,
      "수술": 9890,
      "생겨": 9891,
      "##했다고": 9892,
      "올해": 9893,
      "가스": 9894,
      "문재인대통령": 9895,
      "##적이고": 9896,
      "민주주의": 9897,
      "나라에서": 9898,
      "낙": 9899,
      "투표": 9900,
      "신경": 9901,
      "##춰": 9902,
      "효과": 9903,
      "물어": 9904,
      "인사": 9905,
      "##개발": 9906,
      "##봅니다": 9907,
      "크게": 9908,
      "##먹고": 9909,
      "시급": 9910,
      "일하는": 9911,
      "빈": 9912,
      "블": 9913,
      "지금의": 9914,
      "바꿔": 9915,
      "최고": 9916,
      "영향": 9917,
      "##금이": 9918,
      "직업": 9919,
      "##========": 9920,
      "##있고": 9921,
      "고객": 9922,
      "##이지만": 9923,
      "민간": 9924,
      "##케": 9925,
      "올립니다": 9926,
      "##고를": 9927,
      "만들고": 9928,
      "기대": 9929,
      "사항": 9930,
      "##나고": 9931,
      "혜택을": 9932,
      "##진국": 9933,
      "##겠죠": 9934,
      "돌려": 9935,
      "##민주": 9936,
      "횡": 9937,
      "업체": 9938,
      "어찌": 9939,
      "마지": 9940,
      "##노동": 9941,
      "그동안": 9942,
      "공매": 9943,
      "있지": 9944,
      "혼자": 9945,
      "안타까": 9946,
      "부모님": 9947,
      "##염": 9948,
      "##보는": 9949,
      "##이니": 9950,
      "도움이": 9951,
      "##좌": 9952,
      "맞는": 9953,
      "##과의": 9954,
      "생산": 9955,
      "정치인": 9956,
      "그에": 9957,
      "##에만": 9958,
      "않도록": 9959,
      "강력한": 9960,
      "##야합니다": 9961,
      "도입": 9962,
      "아프": 9963,
      "소송": 9964,
      "##두순": 9965,
      "##어난": 9966,
      "끊": 9967,
      "만큼": 9968,
      "자연": 9969,
      "이유가": 9970,
      "보육": 9971,
      "흡연": 9972,
      "반복": 9973,
      "침해": 9974,
      "사진": 9975,
      "나온": 9976,
      "없어서": 9977,
      "이것이": 9978,
      "##교통": 9979,
      "존경": 9980,
      "우리나라는": 9981,
      "##든지": 9982,
      "조두순": 9983,
      "위협": 9984,
      "##이를": 9985,
      "대구": 9986,
      "솔": 9987,
      "나라의": 9988,
      "지하": 9989,
      "##드리": 9990,
      "##대의": 9991,
      "##귀": 9992,
      "##번호": 9993,
      "뛰": 9994,
      "않으면": 9995,
      "조건": 9996,
      "사례": 9997,
      "낳": 9998,
      "썩": 9999,
      "이것은": 10000,
      "생기": 10001,
      "##법이": 10002,
      "##리로": 10003,
      "www": 10004,
      "##롭": 10005,
      "묻": 10006,
      "범죄를": 10007,
      "더불": 10008,
      "활동": 10009,
      "피해자가": 10010,
      "연구": 10011,
      "불가능": 10012,
      "참고": 10013,
      "##략": 10014,
      "이름": 10015,
      "세월": 10016,
      "씨": 10017,
      "되어야": 10018,
      "##5년": 10019,
      "있다면": 10020,
      "내용을": 10021,
      "엄청난": 10022,
      "##자기": 10023,
      "##환경": 10024,
      "##병원": 10025,
      "저를": 10026,
      "이익": 10027,
      "남편": 10028,
      "##서에": 10029,
      "##관련": 10030,
      "드립니다": 10031,
      "##을때": 10032,
      "국민들에게": 10033,
      "간곡": 10034,
      "스트": 10035,
      "##겁니까": 10036,
      "게임": 10037,
      "민주당": 10038,
      "##in": 10039,
      "의한": 10040,
      "원칙": 10041,
      "마지막": 10042,
      "손해": 10043,
      "##골": 10044,
      "여론": 10045,
      "많아": 10046,
      "했는데": 10047,
      "몸": 10048,
      "##농": 10049,
      "녹": 10050,
      "##20": 10051,
      "집을": 10052,
      "형사": 10053,
      "##은행": 10054,
      "서비스": 10055,
      "???": 10056,
      "##갖": 10057,
      "##었는데": 10058,
      "##와서": 10059,
      "안정": 10060,
      "##셨습니다": 10061,
      "##텐": 10062,
      "증가": 10063,
      "##청원": 10064,
      "그게": 10065,
      "통일": 10066,
      "##정권": 10067,
      "근거": 10068,
      "##끔": 10069,
      "##부에": 10070,
      "벌어": 10071,
      "##000": 10072,
      "부과": 10073,
      "사형": 10074,
      "##없고": 10075,
      "듭니다": 10076,
      "그래도": 10077,
      "60": 10078,
      "두려": 10079,
      "않게": 10080,
      "##선을": 10081,
      "인천": 10082,
      "누군": 10083,
      "##하라고": 10084,
      "##평등": 10085,
      "##죽": 10086,
      "##tv": 10087,
      "##분들이": 10088,
      "##자인": 10089,
      "##주도": 10090,
      "##로서": 10091,
      "더불어": 10092,
      "심각한": 10093,
      "저에게": 10094,
      "##안이": 10095,
      "~~": 10096,
      "독립": 10097,
      "##공사": 10098,
      "하였": 10099,
      "##시키는": 10100,
      "##공단": 10101,
      "사건을": 10102,
      "##자들에게": 10103,
      "##위에": 10104,
      "##증을": 10105,
      "목수": 10106,
      "##닥": 10107,
      "##한국": 10108,
      "웃": 10109,
      "소유": 10110,
      "구매": 10111,
      "시장": 10112,
      "허위": 10113,
      "어떠한": 10114,
      "넘어": 10115,
      "##꼬": 10116,
      "찬": 10117,
      "전에": 10118,
      "##경제": 10119,
      "시간을": 10120,
      "##수는": 10121,
      "다양": 10122,
      "비정규직": 10123,
      "합니까": 10124,
      "##소에": 10125,
      "가서": 10126,
      "격": 10127,
      "##장애": 10128,
      "규정": 10129,
      "세금으로": 10130,
      "##운동": 10131,
      "내용이": 10132,
      "##사항": 10133,
      "있으니": 10134,
      "##흥": 10135,
      "공급": 10136,
      "그들의": 10137,
      "바람": 10138,
      "단체": 10139,
      "##신청": 10140,
      "마찬": 10141,
      "빚": 10142,
      "news": 10143,
      "##으시": 10144,
      "국가에서": 10145,
      "##앞": 10146,
      "꿈": 10147,
      "표현": 10148,
      "원하는": 10149,
      "##잖": 10150,
      "##하여야": 10151,
      "##처리": 10152,
      "한반": 10153,
      "만드는": 10154,
      "실제": 10155,
      "##레스": 10156,
      "보도": 10157,
      "운동": 10158,
      "##넘": 10159,
      "##해야합니다": 10160,
      "정도로": 10161,
      "그리": 10162,
      "간절": 10163,
      "보건": 10164,
      "끌": 10165,
      "아니라고": 10166,
      "##줘야": 10167,
      "##맹": 10168,
      "##비용": 10169,
      "무기": 10170,
      "읽어": 10171,
      "뭔": 10172,
      "벗": 10173,
      "##퍼": 10174,
      "거부": 10175,
      "아침": 10176,
      "##감을": 10177,
      "제기": 10178,
      "내고": 10179,
      "건축": 10180,
      "##웃": 10181,
      "##찍": 10182,
      "남녀": 10183,
      "쓰레기": 10184,
      "비리": 10185,
      "인구": 10186,
      "##는게": 10187,
      "##들로": 10188,
      "이라는": 10189,
      "소리": 10190,
      "##시험": 10191,
      "##차별": 10192,
      "##커": 10193,
      "줘": 10194,
      "사무": 10195,
      "##워서": 10196,
      "만나": 10197,
      "그러면": 10198,
      "화가": 10199,
      "##르게": 10200,
      "##ᆼ크": 10201,
      "##하지않": 10202,
      "경찰이": 10203,
      "##쁘": 10204,
      "##청산": 10205,
      "그저": 10206,
      "수정": 10207,
      "믿고": 10208,
      "##라리": 10209,
      "##교사": 10210,
      "##프로": 10211,
      "##려야": 10212,
      "유치원": 10213,
      "방문": 10214,
      "프": 10215,
      "틀": 10216,
      "들었습니다": 10217,
      "공사": 10218,
      "조치": 10219,
      "##리한": 10220,
      "##30": 10221,
      "방치": 10222,
      "않았습니다": 10223,
      "작년": 10224,
      "끼": 10225,
      "kr": 10226,
      "전체": 10227,
      "##완": 10228,
      "##촌": 10229,
      "상승": 10230,
      "간곡히": 10231,
      "역사": 10232,
      "저희는": 10233,
      "##정에서": 10234,
      "영업": 10235,
      "##니다": 10236,
      "##임이": 10237,
      "퍼": 10238,
      "음주운전": 10239,
      "입장": 10240,
      "뇌": 10241,
      "##리사": 10242,
      "힘이": 10243,
      "##기사": 10244,
      "##중한": 10245,
      "특정": 10246,
      "##방송": 10247,
      "모두가": 10248,
      "##문화": 10249,
      "##비가": 10250,
      "##없습니다": 10251,
      "##년간": 10252,
      "늘어나": 10253,
      "##번째": 10254,
      "경험": 10255,
      "마찬가지": 10256,
      "듣": 10257,
      "흘": 10258,
      "##re": 10259,
      "권리": 10260,
      "년": 10261,
      "##11": 10262,
      "페미": 10263,
      "아이들": 10264,
      "대다": 10265,
      "##가서": 10266,
      "분노": 10267,
      "##출산": 10268,
      "궁금": 10269,
      "희생": 10270,
      "인하여": 10271,
      "감독": 10272,
      "경기도": 10273,
      "우리나라의": 10274,
      "차라리": 10275,
      "니": 10276,
      "충분히": 10277,
      "얼굴": 10278,
      "평생": 10279,
      "고등학교": 10280,
      "부당": 10281,
      "훈련": 10282,
      "현장": 10283,
      "##하였고": 10284,
      "##산업": 10285,
      "##픈": 10286,
      "##소송": 10287,
      "정작": 10288,
      "##풍": 10289,
      "##대출": 10290,
      "##........": 10291,
      "실제로": 10292,
      "상당": 10293,
      "민원을": 10294,
      "흔": 10295,
      "##풀": 10296,
      "##내는": 10297,
      "대신": 10298,
      "국민에게": 10299,
      "##마디": 10300,
      "##분을": 10301,
      "##경우": 10302,
      "수입": 10303,
      "##부로": 10304,
      "##매매": 10305,
      "##품을": 10306,
      "캐": 10307,
      "고민": 10308,
      "##물이": 10309,
      "예를": 10310,
      "##던지": 10311,
      "갑자기": 10312,
      "그것도": 10313,
      "듣고": 10314,
      "##구를": 10315,
      "##년이": 10316,
      "법무": 10317,
      "##글을": 10318,
      "아이가": 10319,
      "멀": 10320,
      "헌법재판": 10321,
      "##흐": 10322,
      "##안에": 10323,
      "한다면": 10324,
      "##상황": 10325,
      "처럼": 10326,
      "##도시": 10327,
      "가고": 10328,
      "##하겠습니다": 10329,
      "보이": 10330,
      "실업": 10331,
      "집에": 10332,
      "##었던": 10333,
      "##원으로": 10334,
      "##칭": 10335,
      "##르면": 10336,
      "사유": 10337,
      "##하는지": 10338,
      "받았습니다": 10339,
      "카드": 10340,
      "도와주세요": 10341,
      "힘들게": 10342,
      "##ㅡㅡ": 10343,
      "올바": 10344,
      "제도를": 10345,
      "안보": 10346,
      "지도": 10347,
      "했다": 10348,
      "올림픽": 10349,
      "##단을": 10350,
      "##주십시오": 10351,
      "폭력": 10352,
      "자리": 10353,
      "입주": 10354,
      "솔직": 10355,
      "##천만원": 10356,
      "납부": 10357,
      "##하시고": 10358,
      "##간에": 10359,
      "##자도": 10360,
      "##을수": 10361,
      "##복무": 10362,
      "##--------------------------------": 10363,
      "##발전": 10364,
      "옆": 10365,
      "##소리": 10366,
      "조합": 10367,
      "두고": 10368,
      "자식": 10369,
      "약속": 10370,
      "명예": 10371,
      "석": 10372,
      "경찰의": 10373,
      "말로": 10374,
      "자신이": 10375,
      "온갖": 10376,
      "##슈": 10377,
      "##지면": 10378,
      "비로": 10379,
      "##들고": 10380,
      "##려서": 10381,
      "신용": 10382,
      "쳐": 10383,
      "의무를": 10384,
      "나오는": 10385,
      "힘들어": 10386,
      "앉": 10387,
      "##등학생": 10388,
      "##시장": 10389,
      "달라": 10390,
      "통과": 10391,
      "디": 10392,
      "소년": 10393,
      "##널": 10394,
      "어쩔": 10395,
      "선진국": 10396,
      "발언": 10397,
      "워": 10398,
      "뿌": 10399,
      "아이들을": 10400,
      "##것으로": 10401,
      "사건이": 10402,
      "학부모": 10403,
      "말입니다": 10404,
      "##여서": 10405,
      "##부장": 10406,
      "성폭행": 10407,
      "학생들이": 10408,
      "모르겠습니다": 10409,
      "##자체": 10410,
      "한반도": 10411,
      "##적을": 10412,
      "살기": 10413,
      "집행": 10414,
      "##bs": 10415,
      "매년": 10416,
      "##상태": 10417,
      "없었습니다": 10418,
      "대형": 10419,
      "알바": 10420,
      "출국": 10421,
      "##담을": 10422,
      "합의": 10423,
      "##한번": 10424,
      "악용": 10425,
      "알게": 10426,
      "마치": 10427,
      "폐쇄": 10428,
      "경기": 10429,
      "##렸습니다": 10430,
      "na": 10431,
      "##암": 10432,
      "가능한": 10433,
      "##계획": 10434,
      "2차": 10435,
      "##달라고": 10436,
      "모르고": 10437,
      "밤": 10438,
      "민사": 10439,
      "영어": 10440,
      "근본": 10441,
      "구입": 10442,
      "##리면": 10443,
      "장기": 10444,
      "##찮": 10445,
      "기록": 10446,
      "##@@": 10447,
      "이라고": 10448,
      "지정": 10449,
      "분들": 10450,
      "아니다": 10451,
      "옳": 10452,
      "계획": 10453,
      "수능": 10454,
      "법적": 10455,
      "##en": 10456,
      "기억": 10457,
      "한사람": 10458,
      "불과": 10459,
      "##한국당": 10460,
      "##있는데": 10461,
      "스트레스": 10462,
      "##잘": 10463,
      "##벌이": 10464,
      "주십시요": 10465,
      "##an": 10466,
      "신뢰": 10467,
      "억울한": 10468,
      "상황에서": 10469,
      "의심": 10470,
      "출근": 10471,
      "주거": 10472,
      "##ᅰ손": 10473,
      "촉": 10474,
      "##수사": 10475,
      "삭제": 10476,
      "생각하고": 10477,
      "##션": 10478,
      "느껴": 10479,
      "누구나": 10480,
      "##랍니다": 10481,
      "##지게": 10482,
      "우려": 10483,
      "놓고": 10484,
      "시청": 10485,
      "뿐만": 10486,
      "대한민국이": 10487,
      "##간의": 10488,
      "##최": 10489,
      "것이고": 10490,
      "낭비": 10491,
      "##나마": 10492,
      "교육을": 10493,
      "초등학교": 10494,
      "##왔습니다": 10495,
      "##대는": 10496,
      "나타": 10497,
      "##심으로": 10498,
      "##다운": 10499,
      "##금으로": 10500,
      "##구나": 10501,
      "##급여": 10502,
      "하는지": 10503,
      "저출산": 10504,
      "개인의": 10505,
      "뒷": 10506,
      "생각해": 10507,
      "##직원": 10508,
      "공동": 10509,
      ".(": 10510,
      "몰라": 10511,
      "##하려고": 10512,
      "##셔야": 10513,
      "대한민국을": 10514,
      "못할": 10515,
      "##했다는": 10516,
      "##인들이": 10517,
      "갖고": 10518,
      "여성가족": 10519,
      "본인이": 10520,
      "자신들의": 10521,
      "나쁜": 10522,
      "의문": 10523,
      "현대": 10524,
      "##뤄": 10525,
      "##저히": 10526,
      "##곳에": 10527,
      "찌": 10528,
      "생계": 10529,
      "##도한": 10530,
      "묵": 10531,
      "현실입니다": 10532,
      "네이": 10533,
      "사리사": 10534,
      "제시": 10535,
      "##놈": 10536,
      "자체": 10537,
      "상대로": 10538,
      "##이자": 10539,
      "사람들을": 10540,
      "##있게": 10541,
      "성장": 10542,
      "옮": 10543,
      "##성화": 10544,
      "성폭력": 10545,
      "대해서는": 10546,
      "생명": 10547,
      "자유한국당": 10548,
      "이르": 10549,
      "그래야": 10550,
      "양심": 10551,
      "기사를": 10552,
      "청구": 10553,
      "그들이": 10554,
      "넘는": 10555,
      "있기": 10556,
      "##중인": 10557,
      "이번에": 10558,
      "##ᆸ고": 10559,
      "아예": 10560,
      "##아닌": 10561,
      "2016년": 10562,
      "##엄": 10563,
      "대응": 10564,
      "실질": 10565,
[...]
